// Auto-generated TensorFlow Lite Model
// Architecture: MLP (64, 32) -> Softmax
// Source: Native Keras Training

const unsigned int mlp_model_optimized_tflite_len = 12892;
const unsigned char mlp_model_optimized_tflite[] = {
  0x1c, 0x00, 0x00, 0x00, 0x54, 0x46, 0x4c, 0x33, 0x14, 0x00, 0x20, 0x00,
  0x1c, 0x00, 0x18, 0x00, 0x14, 0x00, 0x10, 0x00, 0x0c, 0x00, 0x00, 0x00,
  0x08, 0x00, 0x04, 0x00, 0x14, 0x00, 0x00, 0x00, 0x1c, 0x00, 0x00, 0x00,
  0x98, 0x00, 0x00, 0x00, 0xf0, 0x00, 0x00, 0x00, 0x34, 0x2c, 0x00, 0x00,
  0x44, 0x2c, 0x00, 0x00, 0xf8, 0x31, 0x00, 0x00, 0x03, 0x00, 0x00, 0x00,
  0x01, 0x00, 0x00, 0x00, 0x10, 0x00, 0x00, 0x00, 0x00, 0x00, 0x0a, 0x00,
  0x10, 0x00, 0x0c, 0x00, 0x08, 0x00, 0x04, 0x00, 0x0a, 0x00, 0x00, 0x00,
  0x0c, 0x00, 0x00, 0x00, 0x1c, 0x00, 0x00, 0x00, 0x3c, 0x00, 0x00, 0x00,
  0x0f, 0x00, 0x00, 0x00, 0x73, 0x65, 0x72, 0x76, 0x69, 0x6e, 0x67, 0x5f,
  0x64, 0x65, 0x66, 0x61, 0x75, 0x6c, 0x74, 0x00, 0x01, 0x00, 0x00, 0x00,
  0x04, 0x00, 0x00, 0x00, 0x90, 0xff, 0xff, 0xff, 0x0a, 0x00, 0x00, 0x00,
  0x04, 0x00, 0x00, 0x00, 0x08, 0x00, 0x00, 0x00, 0x6f, 0x75, 0x74, 0x70,
  0x75, 0x74, 0x5f, 0x30, 0x00, 0x00, 0x00, 0x00, 0x01, 0x00, 0x00, 0x00,
  0x04, 0x00, 0x00, 0x00, 0xb2, 0xd3, 0xff, 0xff, 0x04, 0x00, 0x00, 0x00,
  0x0c, 0x00, 0x00, 0x00, 0x6b, 0x65, 0x72, 0x61, 0x73, 0x5f, 0x74, 0x65,
  0x6e, 0x73, 0x6f, 0x72, 0x00, 0x00, 0x00, 0x00, 0x02, 0x00, 0x00, 0x00,
  0x34, 0x00, 0x00, 0x00, 0x04, 0x00, 0x00, 0x00, 0xdc, 0xff, 0xff, 0xff,
  0x0d, 0x00, 0x00, 0x00, 0x04, 0x00, 0x00, 0x00, 0x13, 0x00, 0x00, 0x00,
  0x43, 0x4f, 0x4e, 0x56, 0x45, 0x52, 0x53, 0x49, 0x4f, 0x4e, 0x5f, 0x4d,
  0x45, 0x54, 0x41, 0x44, 0x41, 0x54, 0x41, 0x00, 0x08, 0x00, 0x0c, 0x00,
  0x08, 0x00, 0x04, 0x00, 0x08, 0x00, 0x00, 0x00, 0x0c, 0x00, 0x00, 0x00,
  0x04, 0x00, 0x00, 0x00, 0x13, 0x00, 0x00, 0x00, 0x6d, 0x69, 0x6e, 0x5f,
  0x72, 0x75, 0x6e, 0x74, 0x69, 0x6d, 0x65, 0x5f, 0x76, 0x65, 0x72, 0x73,
  0x69, 0x6f, 0x6e, 0x00, 0x0e, 0x00, 0x00, 0x00, 0x40, 0x2b, 0x00, 0x00,
  0x38, 0x2b, 0x00, 0x00, 0xa8, 0x26, 0x00, 0x00, 0x98, 0x06, 0x00, 0x00,
  0x64, 0x06, 0x00, 0x00, 0xd4, 0x05, 0x00, 0x00, 0xc4, 0x04, 0x00, 0x00,
  0xb4, 0x00, 0x00, 0x00, 0xac, 0x00, 0x00, 0x00, 0xa4, 0x00, 0x00, 0x00,
  0x9c, 0x00, 0x00, 0x00, 0x94, 0x00, 0x00, 0x00, 0x74, 0x00, 0x00, 0x00,
  0x04, 0x00, 0x00, 0x00, 0x66, 0xd4, 0xff, 0xff, 0x04, 0x00, 0x00, 0x00,
  0x60, 0x00, 0x00, 0x00, 0x10, 0x00, 0x00, 0x00, 0x00, 0x00, 0x00, 0x00,
  0x08, 0x00, 0x0e, 0x00, 0x08, 0x00, 0x04, 0x00, 0x08, 0x00, 0x00, 0x00,
  0x10, 0x00, 0x00, 0x00, 0x24, 0x00, 0x00, 0x00, 0x00, 0x00, 0x06, 0x00,
  0x08, 0x00, 0x04, 0x00, 0x06, 0x00, 0x00, 0x00, 0x04, 0x00, 0x00, 0x00,
  0x00, 0x00, 0x00, 0x00, 0x0c, 0x00, 0x18, 0x00, 0x14, 0x00, 0x10, 0x00,
  0x0c, 0x00, 0x04, 0x00, 0x0c, 0x00, 0x00, 0x00, 0xa7, 0x26, 0xa8, 0xab,
  0x72, 0x33, 0xd6, 0xd1, 0x02, 0x00, 0x00, 0x00, 0x02, 0x00, 0x00, 0x00,
  0x04, 0x00, 0x00, 0x00, 0x06, 0x00, 0x00, 0x00, 0x32, 0x2e, 0x31, 0x39,
  0x2e, 0x30, 0x00, 0x00, 0xd2, 0xd4, 0xff, 0xff, 0x04, 0x00, 0x00, 0x00,
  0x10, 0x00, 0x00, 0x00, 0x31, 0x2e, 0x35, 0x2e, 0x30, 0x00, 0x00, 0x00,
  0x00, 0x00, 0x00, 0x00, 0x00, 0x00, 0x00, 0x00, 0xe8, 0xcf, 0xff, 0xff,
  0xec, 0xcf, 0xff, 0xff, 0xf0, 0xcf, 0xff, 0xff, 0xf4, 0xcf, 0xff, 0xff,
  0xfe, 0xd4, 0xff, 0xff, 0x04, 0x00, 0x00, 0x00, 0x00, 0x04, 0x00, 0x00,
  0x00, 0x8d, 0x0d, 0x3f, 0xb0, 0x20, 0x49, 0xbd, 0xd0, 0xb7, 0x12, 0x3f,
  0x57, 0x61, 0x0f, 0xbe, 0x26, 0x72, 0xed, 0x3e, 0x71, 0x09, 0x85, 0x3f,
  0xe8, 0xaf, 0xa9, 0xbe, 0x2d, 0xca, 0x01, 0x3e, 0xeb, 0x5d, 0xbb, 0x3b,
  0xe4, 0xfd, 0xbd, 0x3a, 0x21, 0xa6, 0x9e, 0xbd, 0xc3, 0x1f, 0xe2, 0x3e,
  0x70, 0x72, 0x62, 0x3d, 0x7e, 0x41, 0xd4, 0xbe, 0x77, 0x1b, 0x87, 0xbd,
  0x1f, 0x67, 0x1b, 0x3f, 0x60, 0x75, 0xbb, 0xbe, 0xa2, 0xec, 0x2a, 0x3f,
  0x60, 0xe6, 0xca, 0xbe, 0x7e, 0x3f, 0x0f, 0x3d, 0x2a, 0x1e, 0xc9, 0x3d,
  0x40, 0x7c, 0x20, 0xbf, 0xe3, 0x56, 0x31, 0x3c, 0x52, 0x9b, 0x91, 0x3e,
  0xea, 0x4f, 0xdc, 0xbe, 0xc0, 0x1c, 0x56, 0x3e, 0xb5, 0x20, 0x1a, 0xbf,
  0x1f, 0xb4, 0xc4, 0x3e, 0x60, 0x25, 0xdc, 0xbd, 0x36, 0x89, 0xf5, 0x3e,
  0x99, 0xab, 0x00, 0xbe, 0x9c, 0xdb, 0xb7, 0xbe, 0xe1, 0x6a, 0x5b, 0x3b,
  0x98, 0x56, 0x30, 0x3f, 0x9f, 0xba, 0x32, 0xbf, 0xf3, 0x30, 0xb1, 0x3e,
  0x52, 0xf7, 0xbe, 0x3e, 0xfe, 0xac, 0x65, 0x3e, 0x46, 0xce, 0xfd, 0x3c,
  0x84, 0xea, 0xe4, 0xbe, 0xa1, 0xb4, 0xc5, 0x3e, 0xe9, 0x42, 0x0a, 0xbc,
  0x64, 0x95, 0x70, 0x3f, 0x1c, 0x83, 0xc6, 0x3e, 0xc4, 0xf1, 0x07, 0x3f,
  0x31, 0xb0, 0xa5, 0x3c, 0xbd, 0x8c, 0x41, 0x3f, 0x99, 0x53, 0x64, 0xbd,
  0xf4, 0x92, 0x8b, 0x3e, 0xbc, 0x53, 0x0b, 0xbf, 0x59, 0xbf, 0xac, 0x3e,
  0xaf, 0x48, 0xc3, 0xbe, 0xfd, 0x12, 0xc0, 0xbe, 0xef, 0xf4, 0x22, 0x3f,
  0x7a, 0x6b, 0x3d, 0xbe, 0x58, 0x50, 0xe0, 0xbd, 0x5d, 0xf8, 0x3a, 0x3e,
  0xf6, 0x42, 0xbd, 0x3e, 0x23, 0x7c, 0xc4, 0xbd, 0xfa, 0xcf, 0x87, 0xbe,
  0x9e, 0x95, 0xf9, 0x3d, 0x77, 0x47, 0xef, 0x3d, 0xc6, 0xe6, 0x08, 0x3f,
  0x67, 0xc9, 0x58, 0xbe, 0x69, 0x0c, 0x07, 0x3e, 0x66, 0xf2, 0x13, 0xbf,
  0x7a, 0xc1, 0xf9, 0x3e, 0xe0, 0x66, 0x98, 0x3c, 0x46, 0xc7, 0x39, 0xbf,
  0xa6, 0xdd, 0xb6, 0x3d, 0xfe, 0x53, 0xcf, 0xbe, 0xbf, 0x84, 0xa6, 0xbe,
  0xac, 0x28, 0x33, 0xbe, 0xc3, 0x0b, 0xe2, 0xbf, 0x85, 0x55, 0xc9, 0xbd,
  0x4b, 0x8d, 0x65, 0x3e, 0x32, 0x03, 0xb8, 0x3e, 0x9e, 0x7d, 0x95, 0x3f,
  0x4f, 0x1e, 0x0e, 0x3e, 0x23, 0x9d, 0x26, 0xbe, 0x8a, 0xd9, 0x83, 0xbf,
  0x47, 0x2a, 0xf3, 0xbc, 0xa6, 0x7f, 0x98, 0xbf, 0x1a, 0x08, 0x3d, 0xbe,
  0x70, 0xf2, 0x62, 0xbf, 0xd4, 0x4c, 0xb8, 0xbd, 0x21, 0xcb, 0xc4, 0xbe,
  0x3c, 0xa4, 0xfa, 0xbe, 0xfd, 0x07, 0x85, 0x3e, 0x60, 0x04, 0x77, 0xbe,
  0x83, 0xdc, 0x0c, 0x3d, 0x58, 0x2a, 0xd7, 0x3e, 0x0a, 0x2e, 0x67, 0x3d,
  0x02, 0xca, 0xfe, 0xbe, 0x2f, 0x89, 0xf8, 0x3e, 0x79, 0xf2, 0xa9, 0xbe,
  0x38, 0xe8, 0x88, 0x3e, 0x42, 0x06, 0xc1, 0x3e, 0x50, 0xcf, 0xa3, 0xbe,
  0x2e, 0xd4, 0x1b, 0xbe, 0x85, 0x2c, 0x3d, 0x3f, 0xb5, 0xed, 0xa8, 0xbd,
  0xa8, 0xcb, 0x3a, 0x3f, 0xfe, 0x11, 0x83, 0x3d, 0xba, 0x3b, 0x45, 0xbd,
  0x51, 0x28, 0xed, 0x3e, 0x1c, 0x6f, 0xcd, 0x3c, 0xb9, 0x1a, 0x13, 0xbe,
  0xbf, 0x81, 0x86, 0xbe, 0x6c, 0xf2, 0xe4, 0x3d, 0xc8, 0x8a, 0x66, 0xbf,
  0x55, 0xa7, 0xcc, 0x3d, 0x44, 0x9d, 0x54, 0xbf, 0xe7, 0xd6, 0xaa, 0x3d,
  0x56, 0x3f, 0xf6, 0xbe, 0x32, 0x11, 0xd2, 0xbe, 0x5a, 0xe1, 0x18, 0x3f,
  0xd2, 0xaf, 0x6e, 0x3e, 0x61, 0xa4, 0x2d, 0x3f, 0xbc, 0xbf, 0x34, 0x3e,
  0xef, 0x1c, 0x17, 0x3e, 0xa3, 0x7f, 0x78, 0x3f, 0xc8, 0xde, 0x5d, 0x3c,
  0x8c, 0xbf, 0x68, 0xbb, 0x5d, 0xe2, 0x35, 0x3e, 0xf6, 0x28, 0x8e, 0xbd,
  0xab, 0x1d, 0x4d, 0xbd, 0x0b, 0xc4, 0xfe, 0x3e, 0xe8, 0x11, 0x89, 0xbe,
  0x89, 0x68, 0x0a, 0xbf, 0x1c, 0x32, 0x85, 0x3d, 0x16, 0x87, 0x8f, 0xbe,
  0x0d, 0xc5, 0x4f, 0xbd, 0x9b, 0x81, 0xa0, 0xbd, 0x58, 0x4a, 0x18, 0x3f,
  0x3a, 0x48, 0x01, 0xbf, 0x04, 0x53, 0xa3, 0x3e, 0xb7, 0xd7, 0x7a, 0x3e,
  0x6d, 0x81, 0x20, 0x3f, 0xde, 0x22, 0x8c, 0x3d, 0x1d, 0x0e, 0xad, 0xbe,
  0x5e, 0xe1, 0x3e, 0x3f, 0x36, 0x4d, 0xea, 0xbe, 0x87, 0xd1, 0xd5, 0x3e,
  0xd0, 0xb9, 0xe3, 0x3e, 0x66, 0x35, 0x2e, 0xbe, 0xf3, 0xd1, 0x48, 0x3f,
  0x5a, 0x82, 0x4c, 0xbe, 0x2a, 0xa0, 0xf1, 0xbe, 0xcf, 0x20, 0x92, 0xbe,
  0xd1, 0x6e, 0xe2, 0xbe, 0x50, 0x74, 0xa4, 0x3e, 0x98, 0x9e, 0xb9, 0x3e,
  0x6f, 0x5a, 0x86, 0x3e, 0xf2, 0x6c, 0xe7, 0x3e, 0x13, 0x5b, 0x9f, 0xbe,
  0x3a, 0x4b, 0x1f, 0x3f, 0x1f, 0xc1, 0xfc, 0xbd, 0xdc, 0xba, 0x4a, 0x3f,
  0x79, 0x57, 0xb8, 0x3b, 0xb7, 0xb9, 0xf3, 0xbe, 0x1a, 0xc4, 0x9c, 0x3c,
  0x1f, 0x9c, 0x2a, 0xbf, 0xba, 0x8b, 0xf0, 0xbe, 0x6b, 0x33, 0x87, 0xbf,
  0xe1, 0x80, 0x7a, 0x3d, 0x5e, 0x57, 0x81, 0xbf, 0x21, 0x86, 0xb8, 0xbe,
  0x43, 0xee, 0x10, 0x3f, 0x77, 0x5d, 0x08, 0x3e, 0x47, 0x22, 0x2f, 0x3f,
  0x85, 0x9e, 0x64, 0xbc, 0x6a, 0x5d, 0x0a, 0xbe, 0xc3, 0x27, 0x1d, 0x3f,
  0x2c, 0x89, 0x02, 0xbf, 0x89, 0x97, 0x1d, 0x3d, 0xc4, 0xfd, 0xa9, 0xbe,
  0x12, 0x69, 0xe8, 0xbf, 0xbb, 0x3d, 0x08, 0x3e, 0x95, 0x98, 0x3e, 0x3e,
  0x42, 0xe3, 0x8a, 0x3e, 0xc1, 0x6f, 0xfa, 0x3d, 0x76, 0xf7, 0x89, 0x3f,
  0x22, 0x96, 0xf6, 0x3d, 0x6a, 0xe8, 0x0f, 0x3e, 0x27, 0xfb, 0xb5, 0xbd,
  0x39, 0x44, 0x0e, 0xbd, 0xfb, 0xb4, 0xf5, 0x3e, 0x5e, 0x37, 0x08, 0x3f,
  0x2f, 0x81, 0x0c, 0x3e, 0x20, 0x3a, 0x48, 0x3e, 0x9e, 0x38, 0x1d, 0x3c,
  0x99, 0x03, 0x1c, 0x3e, 0x68, 0x63, 0x3b, 0x3f, 0xa9, 0xc9, 0x7e, 0xbe,
  0x56, 0x33, 0x93, 0x3e, 0x45, 0x6e, 0x12, 0x3e, 0xd9, 0xea, 0xd9, 0x3e,
  0x0e, 0x73, 0xff, 0xbd, 0xe6, 0x2a, 0x52, 0xbe, 0x13, 0x7c, 0x4f, 0x3f,
  0xe0, 0x68, 0x6d, 0x3e, 0xb8, 0xc6, 0x26, 0x3f, 0xdd, 0x94, 0x6b, 0x3e,
  0xd7, 0xde, 0x9f, 0xbe, 0x5f, 0x43, 0xcb, 0xbf, 0x28, 0x8d, 0xe0, 0x3d,
  0x71, 0xac, 0x51, 0x3e, 0x99, 0x06, 0x18, 0xbe, 0x36, 0xda, 0xdd, 0x3e,
  0x8b, 0x49, 0xed, 0x3b, 0xae, 0x7a, 0xdb, 0xbe, 0x14, 0x71, 0x60, 0xbd,
  0x99, 0x85, 0xff, 0x3e, 0xf5, 0x04, 0xfd, 0xbe, 0x92, 0x8a, 0xee, 0x3d,
  0x4b, 0x6a, 0xcd, 0xbd, 0x10, 0xd4, 0xc0, 0x3e, 0xad, 0x69, 0x29, 0xbf,
  0x47, 0x7a, 0x98, 0xbe, 0xca, 0xdc, 0xe6, 0x3e, 0x46, 0x97, 0x65, 0x3e,
  0xc8, 0x1c, 0xdc, 0x3e, 0x26, 0xd0, 0xb3, 0xbe, 0x63, 0x6e, 0x7a, 0xbf,
  0x79, 0x44, 0x15, 0xbe, 0x4b, 0x40, 0x4a, 0xbf, 0xe6, 0x71, 0x0b, 0xbf,
  0xf8, 0x42, 0x20, 0x3f, 0x55, 0xd9, 0x94, 0x3d, 0x0c, 0xdf, 0xaa, 0x3e,
  0x55, 0xf9, 0xec, 0x3d, 0xea, 0x4f, 0xf2, 0x3d, 0xd5, 0x3e, 0x12, 0xbe,
  0x5c, 0x64, 0x6b, 0xbd, 0x97, 0xbd, 0xc6, 0x3e, 0x69, 0x71, 0x13, 0x3d,
  0xba, 0x19, 0x31, 0xbf, 0x6d, 0x9e, 0x44, 0x3e, 0xa4, 0xa4, 0x31, 0x3e,
  0xab, 0xc7, 0x05, 0x3f, 0x9e, 0xcd, 0x6d, 0xbd, 0x72, 0x3e, 0x5d, 0x3f,
  0xbb, 0x04, 0x16, 0xbe, 0xe9, 0x0e, 0x05, 0xbe, 0x14, 0x1e, 0xb4, 0xbf,
  0xce, 0x23, 0x57, 0x3c, 0x13, 0xad, 0xdf, 0x3d, 0x42, 0xb2, 0x85, 0xbb,
  0x1b, 0x2b, 0x7e, 0x3e, 0xa3, 0xd2, 0x17, 0xbf, 0x03, 0xa0, 0xa4, 0xbe,
  0x74, 0x50, 0x66, 0xbe, 0xe7, 0xd8, 0x25, 0xbf, 0x5d, 0xe1, 0x49, 0x3e,
  0xc8, 0x11, 0xcd, 0x3e, 0x0a, 0xd9, 0xff, 0xff, 0x04, 0x00, 0x00, 0x00,
  0x00, 0x01, 0x00, 0x00, 0xff, 0xeb, 0x7e, 0xbc, 0xa8, 0x15, 0x82, 0xbe,
  0x92, 0x96, 0x7f, 0x3e, 0x7d, 0x3b, 0xf0, 0xbd, 0x4b, 0x55, 0x1c, 0xbd,
  0xb1, 0xfc, 0xde, 0xbe, 0xa7, 0x0e, 0xc6, 0x3e, 0x8a, 0x4a, 0x88, 0x3e,
  0x55, 0x10, 0x32, 0x3e, 0x55, 0x6c, 0xe2, 0x3d, 0x80, 0xa4, 0xac, 0x3e,
  0x1f, 0xcc, 0x9d, 0x3c, 0x34, 0x4a, 0x67, 0xbd, 0xcf, 0xfb, 0xda, 0x3d,
  0xe0, 0x21, 0x34, 0x3e, 0x24, 0x0e, 0x90, 0xbe, 0xb6, 0x02, 0x7a, 0x3e,
  0x17, 0x03, 0x9b, 0x3c, 0x51, 0x24, 0xc3, 0xbd, 0x7c, 0x7f, 0x45, 0xbe,
  0x3b, 0x33, 0xb6, 0xbd, 0xd2, 0xd1, 0x59, 0xbe, 0xf2, 0x17, 0x8f, 0x3e,
  0x84, 0xe3, 0x57, 0xbd, 0x07, 0x44, 0x1c, 0x3e, 0x27, 0xf3, 0x4a, 0xbe,
  0xf7, 0xe1, 0x0c, 0x3e, 0x24, 0x73, 0xa4, 0x3e, 0xb2, 0x2c, 0x76, 0x3c,
  0x04, 0x9b, 0x85, 0xbc, 0x05, 0x6d, 0x77, 0xbd, 0xf3, 0x6c, 0x95, 0x3e,
  0x7e, 0xc4, 0xaa, 0xbe, 0x55, 0x8a, 0x24, 0x3e, 0x1c, 0x9f, 0x9c, 0xbd,
  0xe7, 0x21, 0x40, 0x3e, 0x90, 0xf9, 0x7a, 0xbe, 0x9e, 0xc1, 0x8c, 0x3e,
  0x32, 0x10, 0xa6, 0xbe, 0x10, 0x97, 0x48, 0xbe, 0x55, 0x1b, 0x59, 0x3c,
  0x19, 0x13, 0x85, 0xbe, 0xcb, 0x05, 0xce, 0xbe, 0x9a, 0xdc, 0x06, 0xbc,
  0xb5, 0x83, 0xf1, 0xbd, 0x73, 0xa9, 0xad, 0xbe, 0x1c, 0x42, 0xa2, 0x3e,
  0x8f, 0x1d, 0x47, 0xbd, 0x92, 0x73, 0x87, 0xbe, 0x4f, 0xe2, 0x2a, 0x3e,
  0x16, 0x1b, 0x57, 0x3c, 0xb5, 0x09, 0x00, 0xbe, 0x08, 0x08, 0x89, 0x3e,
  0xd0, 0x63, 0x2b, 0x3d, 0x52, 0x4e, 0xab, 0x3d, 0x44, 0x89, 0x00, 0xbf,
  0xbd, 0x4c, 0x62, 0xbe, 0x88, 0x7f, 0x3a, 0x3d, 0xf7, 0x68, 0x6d, 0x3e,
  0x40, 0x95, 0xfc, 0xbe, 0x10, 0x6e, 0xb8, 0xbe, 0x93, 0x1d, 0xc6, 0xbd,
  0xd2, 0x9d, 0xa4, 0x3d, 0xbb, 0x10, 0x1f, 0xbf, 0x16, 0xda, 0xff, 0xff,
  0x04, 0x00, 0x00, 0x00, 0x80, 0x00, 0x00, 0x00, 0x83, 0xd8, 0xa0, 0xbd,
  0x82, 0x23, 0xec, 0x3d, 0x1c, 0x8c, 0x5f, 0xbc, 0x4c, 0xd2, 0x8a, 0x3e,
  0x24, 0xee, 0xbc, 0xbe, 0xd9, 0xcb, 0x29, 0xbd, 0x5d, 0xcc, 0x16, 0x3e,
  0xb3, 0x46, 0x24, 0xbe, 0x84, 0x20, 0xdc, 0xbe, 0x35, 0x9a, 0x1f, 0x3f,
  0xed, 0x66, 0x4b, 0x3e, 0x13, 0x64, 0x2e, 0x3f, 0x77, 0xcb, 0xcc, 0x3e,
  0x47, 0x32, 0x17, 0x3e, 0x2c, 0x79, 0x0d, 0x3f, 0x62, 0x88, 0x08, 0x3f,
  0x43, 0x57, 0x04, 0x3e, 0xe6, 0xdc, 0x20, 0x3e, 0x9c, 0x8a, 0x67, 0xbd,
  0xa8, 0x5e, 0x00, 0x3f, 0xe8, 0xec, 0x47, 0x3e, 0xd3, 0x89, 0x6b, 0x3e,
  0xc4, 0xd7, 0x92, 0x3d, 0x0d, 0x7d, 0xd1, 0x3c, 0x07, 0xdf, 0x95, 0x3e,
  0x17, 0xc3, 0x38, 0x3e, 0x80, 0x80, 0x8a, 0x3e, 0xa5, 0x3c, 0x80, 0xbe,
  0x64, 0xe6, 0xb0, 0xbe, 0xff, 0x95, 0x9c, 0xbe, 0x63, 0x01, 0xbe, 0x3e,
  0xb9, 0x3d, 0xea, 0xbd, 0xa2, 0xda, 0xff, 0xff, 0x04, 0x00, 0x00, 0x00,
  0x24, 0x00, 0x00, 0x00, 0x3a, 0xda, 0xe1, 0x3c, 0x47, 0x6a, 0xf7, 0xbd,
  0x16, 0x47, 0x15, 0xbe, 0x20, 0x6f, 0x40, 0xbd, 0x10, 0x08, 0xb0, 0x3e,
  0x76, 0x8b, 0xe1, 0xbd, 0xda, 0x6a, 0xb4, 0xbc, 0x61, 0x10, 0xeb, 0xbe,
  0x6c, 0x63, 0x00, 0x3f, 0xd2, 0xda, 0xff, 0xff, 0x04, 0x00, 0x00, 0x00,
  0x00, 0x20, 0x00, 0x00, 0x48, 0x02, 0x63, 0xbf, 0xc3, 0x66, 0x53, 0x3e,
  0xea, 0x26, 0x37, 0x3f, 0x3a, 0x60, 0xe2, 0x3e, 0x8b, 0x2e, 0xb0, 0x3c,
  0x10, 0x19, 0xe3, 0x3e, 0x34, 0xcd, 0xd5, 0xbd, 0x03, 0x46, 0xb3, 0x3d,
  0x19, 0xed, 0x75, 0x3c, 0xb8, 0x37, 0xdc, 0x3d, 0xea, 0x13, 0xbd, 0xbf,
  0xe2, 0x66, 0x70, 0xbf, 0x6b, 0x92, 0x03, 0x3f, 0x7b, 0x10, 0x6e, 0x3d,
  0x80, 0x50, 0xde, 0x3d, 0x5f, 0x62, 0x12, 0xbf, 0x9d, 0x67, 0xd4, 0x3e,
  0xc2, 0x04, 0xae, 0xbd, 0xea, 0x34, 0x33, 0xbe, 0x6e, 0x84, 0x0f, 0x3d,
  0x15, 0xf1, 0xcb, 0x3e, 0x88, 0x4f, 0xc7, 0x3e, 0xf5, 0xfc, 0x91, 0x3e,
  0x4d, 0xcc, 0x32, 0x3f, 0x90, 0x50, 0xbf, 0x3d, 0xf4, 0xf0, 0x41, 0xbe,
  0x7a, 0x27, 0xef, 0x3d, 0x6a, 0xec, 0x0b, 0xbe, 0x73, 0x2a, 0x7a, 0x3d,
  0x16, 0xc8, 0x8a, 0xbf, 0x34, 0x26, 0x9b, 0x3d, 0x14, 0xbf, 0x8e, 0x3e,
  0xce, 0x67, 0xba, 0xbe, 0x23, 0xd3, 0x0a, 0x3e, 0x27, 0xce, 0x67, 0xbf,
  0x66, 0xe2, 0xcc, 0xbc, 0x3c, 0x8d, 0xf6, 0xbe, 0x75, 0xca, 0x4e, 0xbd,
  0x28, 0x45, 0xe5, 0xbc, 0x87, 0x2f, 0x21, 0xbe, 0xfe, 0xd7, 0xc9, 0x3b,
  0x30, 0x98, 0x6a, 0x3e, 0x96, 0xc2, 0xa0, 0xbe, 0xf7, 0x07, 0x11, 0xbc,
  0xe2, 0x22, 0x1a, 0xbe, 0xf7, 0x40, 0x6b, 0xbe, 0x63, 0x8b, 0xd2, 0x3e,
  0x08, 0xe1, 0x6f, 0xbf, 0xd3, 0xdf, 0x9f, 0x3e, 0xd9, 0x4b, 0xa5, 0x3d,
  0x0b, 0x5d, 0x68, 0xbf, 0xda, 0xc2, 0x33, 0x3c, 0x70, 0x5a, 0x2d, 0xba,
  0xa8, 0x2a, 0xf5, 0x3d, 0x7b, 0x0f, 0x88, 0x3c, 0xe7, 0x1b, 0x9c, 0xbe,
  0x97, 0x35, 0xe4, 0x3e, 0x4a, 0x0e, 0xb0, 0xbf, 0x7f, 0x82, 0x8b, 0x3e,
  0xd1, 0xda, 0x26, 0x3f, 0x1e, 0xdd, 0x0a, 0xbf, 0xb5, 0x1e, 0x38, 0xbe,
  0x7f, 0xab, 0x43, 0x3d, 0x46, 0xc7, 0x4e, 0x3f, 0x75, 0x51, 0x60, 0x3c,
  0x02, 0xac, 0xaa, 0xbf, 0x7e, 0xc4, 0x74, 0x3c, 0x3b, 0xa5, 0xbb, 0x3d,
  0x76, 0x54, 0x06, 0xbe, 0xa2, 0xa7, 0x97, 0x3d, 0xe9, 0x7e, 0x15, 0xbe,
  0x7f, 0xac, 0xe8, 0xbe, 0x97, 0x74, 0xab, 0xbf, 0xa6, 0x00, 0xa2, 0xbe,
  0xab, 0xfe, 0xef, 0x3a, 0x37, 0xce, 0x97, 0x3c, 0xa8, 0xc0, 0xfe, 0x3d,
  0x31, 0x7b, 0x30, 0xbe, 0x70, 0xe2, 0xba, 0xbe, 0x3f, 0x84, 0x81, 0xbe,
  0x88, 0xf0, 0x2a, 0x3c, 0x66, 0xa5, 0xe2, 0x3e, 0x9e, 0x37, 0x53, 0x3f,
  0x2b, 0x44, 0x75, 0xbf, 0xb3, 0x58, 0xba, 0x3e, 0x40, 0xfb, 0x9a, 0x3e,
  0x7b, 0x43, 0xed, 0x3c, 0x8b, 0xed, 0xe8, 0x3e, 0x19, 0xec, 0xfd, 0xbe,
  0x2f, 0x70, 0x1e, 0xbc, 0x87, 0xf0, 0xce, 0xbe, 0xa0, 0x84, 0x07, 0x3e,
  0x10, 0x32, 0x88, 0x3e, 0xf0, 0xbe, 0xca, 0x3c, 0x34, 0xb9, 0xcd, 0xbf,
  0x84, 0xf0, 0x6e, 0x3c, 0x32, 0x98, 0xc7, 0x3e, 0xd7, 0x3d, 0x90, 0x3e,
  0x1a, 0x2a, 0x77, 0xbc, 0x07, 0x63, 0x14, 0xbf, 0x82, 0xa1, 0xe9, 0xbc,
  0x62, 0x86, 0xe4, 0x3c, 0xfa, 0xa9, 0x9b, 0xbe, 0x3e, 0x00, 0x0c, 0x3d,
  0xb5, 0xe2, 0xb4, 0x3e, 0xe9, 0x81, 0x86, 0x3e, 0x3b, 0xb6, 0x1e, 0x3b,
  0x0e, 0x95, 0xde, 0xbe, 0x8e, 0x2b, 0x56, 0x3f, 0x4c, 0x9d, 0xc0, 0xbb,
  0xda, 0xa8, 0xe2, 0x3c, 0xae, 0x0f, 0xe9, 0x3c, 0x83, 0xeb, 0x5a, 0xbf,
  0x8d, 0xa7, 0x19, 0xbe, 0xb8, 0xf9, 0x69, 0x3c, 0xad, 0xd2, 0x3d, 0x3f,
  0x74, 0x62, 0xab, 0xbe, 0xfc, 0xa2, 0x08, 0x3e, 0xf8, 0x95, 0xa5, 0x3e,
  0x48, 0x41, 0xea, 0xbe, 0xe1, 0x33, 0x72, 0x3e, 0x76, 0x31, 0x58, 0x3d,
  0x50, 0xaa, 0x54, 0x3d, 0x37, 0xe7, 0xeb, 0x3e, 0x04, 0xd5, 0x54, 0xbc,
  0xe9, 0x61, 0x70, 0x3f, 0xa9, 0x48, 0x1c, 0x3e, 0xc5, 0xbb, 0x7a, 0x3e,
  0x24, 0xa9, 0x00, 0xbd, 0x90, 0x3f, 0x31, 0x3f, 0xd4, 0xde, 0x17, 0xbc,
  0x53, 0xde, 0x55, 0x3c, 0x02, 0x60, 0x67, 0xbf, 0xd1, 0x13, 0x31, 0xbc,
  0x0b, 0x47, 0x88, 0x3f, 0xca, 0x7d, 0x50, 0xbf, 0x74, 0x9b, 0x87, 0x3f,
  0x4c, 0x60, 0xf2, 0xbe, 0x79, 0x37, 0xe9, 0x3b, 0xdc, 0x59, 0x82, 0x3c,
  0x93, 0xf6, 0x4f, 0xbe, 0x7e, 0xc1, 0x88, 0xbf, 0xbc, 0x46, 0x5c, 0xbf,
  0x41, 0x5f, 0x78, 0x3e, 0x62, 0x79, 0x3a, 0x3d, 0xfd, 0x80, 0x4c, 0x3d,
  0x2f, 0x8a, 0x6b, 0xbf, 0x08, 0x1d, 0x0e, 0x3f, 0xd0, 0x00, 0x35, 0xbf,
  0xab, 0x8a, 0x7b, 0xbd, 0x5c, 0x1e, 0x61, 0x3b, 0xe4, 0x00, 0xcd, 0xbe,
  0xde, 0x06, 0x4c, 0xbf, 0xdf, 0x0f, 0x38, 0x3c, 0xa7, 0x76, 0x48, 0xbf,
  0x45, 0x2b, 0x50, 0xbf, 0x8d, 0x87, 0xa6, 0xbe, 0x8b, 0xa0, 0x51, 0xbc,
  0x04, 0xf9, 0x0e, 0x3f, 0x98, 0x39, 0x33, 0x3c, 0x1f, 0x22, 0x50, 0xbe,
  0xc5, 0x4d, 0x5c, 0xbf, 0xd0, 0xa5, 0xa7, 0xbb, 0x91, 0x02, 0x49, 0x3f,
  0xea, 0xb5, 0x9f, 0x3d, 0xf6, 0xa5, 0x0a, 0x3e, 0xe2, 0xee, 0x58, 0x3e,
  0x34, 0x38, 0x4c, 0x3c, 0x5d, 0x9a, 0xad, 0xbd, 0x82, 0x1a, 0x84, 0xbe,
  0xd8, 0x18, 0x8f, 0x3d, 0x04, 0x12, 0x26, 0xbf, 0x9d, 0x7d, 0xaa, 0xbf,
  0xe8, 0x25, 0xbb, 0x3c, 0x4f, 0xac, 0x28, 0x3d, 0x4c, 0x4e, 0x90, 0x3d,
  0xb1, 0x55, 0x26, 0x3f, 0xe9, 0xaf, 0x32, 0xbf, 0x1a, 0x05, 0x37, 0x3c,
  0x7d, 0xa2, 0x9e, 0xbf, 0x85, 0x69, 0x4d, 0xbf, 0x1d, 0xa2, 0xf5, 0xbe,
  0xcf, 0x06, 0x22, 0xbf, 0x69, 0x38, 0x64, 0x3e, 0xb0, 0xde, 0x22, 0xbd,
  0x65, 0xad, 0xeb, 0x3c, 0x77, 0x14, 0xdb, 0x38, 0xf5, 0x48, 0x0a, 0xbf,
  0xd1, 0x03, 0xf5, 0x3c, 0xff, 0x77, 0xa1, 0xbf, 0xae, 0x4d, 0xe3, 0xbe,
  0x51, 0x9c, 0x1d, 0xbe, 0x4e, 0x08, 0xfa, 0x3c, 0x4b, 0x66, 0xa9, 0x3f,
  0x95, 0x04, 0xc6, 0xbd, 0xb0, 0x53, 0x2d, 0xbe, 0x7e, 0x28, 0x2e, 0x3f,
  0xe5, 0xac, 0x21, 0xbf, 0x79, 0xbd, 0xca, 0x3c, 0x45, 0xd7, 0x75, 0x3f,
  0x0a, 0x8d, 0x48, 0x3f, 0x3f, 0xc3, 0xc6, 0x3e, 0x1e, 0x77, 0x26, 0x3c,
  0xdc, 0x38, 0x32, 0x3e, 0xab, 0xeb, 0xdc, 0xbe, 0x53, 0x06, 0x95, 0x3f,
  0xb2, 0xba, 0xcc, 0x3e, 0xfa, 0x4b, 0x25, 0x3e, 0x03, 0x74, 0xb8, 0xbd,
  0x91, 0xe6, 0x9c, 0x3d, 0x9f, 0xc2, 0x15, 0xbd, 0xac, 0x4f, 0x73, 0x3f,
  0x60, 0xc2, 0x2d, 0xbc, 0x88, 0xd1, 0x47, 0x3c, 0x1e, 0xfa, 0xc7, 0x3b,
  0xd8, 0xe0, 0x73, 0xbf, 0xc8, 0xa6, 0x68, 0x3e, 0xc1, 0xe6, 0xf2, 0x3c,
  0x23, 0x72, 0xcf, 0x3e, 0x67, 0x55, 0x4d, 0xbd, 0x67, 0x61, 0x5d, 0x3c,
  0x55, 0xd9, 0x45, 0x3d, 0xe8, 0x49, 0x96, 0x3f, 0xe0, 0x38, 0xf4, 0xbd,
  0x54, 0xa1, 0x95, 0x3d, 0xfb, 0x2b, 0x8d, 0x3e, 0x3f, 0x3c, 0x01, 0x3e,
  0xfc, 0x7d, 0x0f, 0x3f, 0xc1, 0x2f, 0x35, 0x3e, 0x8d, 0x6f, 0xbb, 0x3b,
  0xc8, 0x52, 0x1e, 0x3f, 0x8d, 0x00, 0xc8, 0x3d, 0x8e, 0x25, 0xdd, 0xb9,
  0x33, 0x54, 0x92, 0x3b, 0xfc, 0x1b, 0x25, 0xbd, 0x50, 0xdc, 0x52, 0x3f,
  0x74, 0x51, 0xb4, 0xbc, 0x10, 0x70, 0xd4, 0x3c, 0x42, 0x27, 0x31, 0xbd,
  0xd0, 0xfb, 0xba, 0x3d, 0x65, 0xa7, 0x9a, 0x3f, 0x07, 0x6f, 0x54, 0x3e,
  0x99, 0x57, 0x02, 0x3c, 0x38, 0x62, 0xa9, 0xbc, 0x97, 0xca, 0xa2, 0x3f,
  0x87, 0xdf, 0xdc, 0x3e, 0x50, 0xd5, 0xb3, 0x3d, 0xdb, 0xb8, 0xf6, 0x3e,
  0x10, 0xf5, 0x8b, 0x3c, 0x08, 0x83, 0xa5, 0x3d, 0xd2, 0x61, 0x40, 0x3c,
  0x32, 0xc2, 0x95, 0xbf, 0xb4, 0xad, 0x85, 0xbd, 0x31, 0x0f, 0x81, 0xbd,
  0xa0, 0x7d, 0x6f, 0x3d, 0xff, 0x89, 0x6e, 0xbf, 0x0a, 0x6b, 0x89, 0x3e,
  0x1c, 0x64, 0xa8, 0x3d, 0x42, 0x24, 0xf5, 0x3d, 0x58, 0x19, 0xc7, 0x3e,
  0x14, 0xb5, 0x30, 0xbf, 0x1c, 0x89, 0xf8, 0x3e, 0xa9, 0x3c, 0x60, 0xbe,
  0x1f, 0xaf, 0xdd, 0xbd, 0x42, 0xc6, 0xbf, 0xbe, 0xde, 0xac, 0x8a, 0xbe,
  0x40, 0xa7, 0xac, 0x3c, 0xd8, 0x94, 0x0a, 0x3e, 0xc4, 0x34, 0x13, 0xbd,
  0x36, 0x24, 0x94, 0xbe, 0xd2, 0xab, 0x62, 0xbe, 0x71, 0x58, 0x8f, 0x3d,
  0x9d, 0xa5, 0xf2, 0x3e, 0x9b, 0x6a, 0x95, 0x3d, 0xb4, 0x2c, 0xe8, 0xbe,
  0xea, 0x22, 0x6f, 0xbe, 0xc1, 0x40, 0x91, 0xbe, 0xa6, 0xe4, 0x95, 0x3d,
  0x99, 0x79, 0x89, 0x3d, 0x64, 0x79, 0xe1, 0x3e, 0xfb, 0x1b, 0xbe, 0xbe,
  0x08, 0x7b, 0xf3, 0x3e, 0x01, 0x30, 0x73, 0xbe, 0x2a, 0xac, 0x7e, 0xbe,
  0x6d, 0xd8, 0xdf, 0x3d, 0x8a, 0x25, 0x8e, 0x3e, 0xd6, 0xbc, 0x15, 0xbe,
  0x74, 0x37, 0x06, 0x3e, 0x83, 0x35, 0x9e, 0xbd, 0xa5, 0x9e, 0xaa, 0xbe,
  0x57, 0x04, 0x59, 0x3e, 0x5c, 0x0e, 0xc6, 0xbe, 0xa2, 0xd1, 0x86, 0x3e,
  0x9e, 0xc2, 0xf2, 0xbe, 0x29, 0xd6, 0xff, 0x3d, 0x87, 0xac, 0x02, 0x3f,
  0xe3, 0xaf, 0x95, 0xbe, 0xa2, 0xb9, 0x5a, 0xbe, 0xc2, 0x82, 0x0e, 0x3e,
  0x39, 0x52, 0x40, 0xbf, 0x88, 0xf6, 0x1a, 0xbe, 0x64, 0x03, 0xff, 0x3e,
  0x96, 0x81, 0x87, 0x3e, 0xee, 0x15, 0xb1, 0x3e, 0xa6, 0xd1, 0xac, 0x3e,
  0x9a, 0x26, 0x72, 0xbe, 0x78, 0x1a, 0x8c, 0x3e, 0x52, 0xbd, 0x32, 0xbe,
  0xeb, 0xa2, 0x33, 0xbe, 0xe5, 0x77, 0xf7, 0xbe, 0x44, 0xdc, 0x28, 0xbf,
  0x5f, 0x0d, 0x76, 0xbe, 0xa1, 0x05, 0xdb, 0xbc, 0x3c, 0xdf, 0xbd, 0x3e,
  0x71, 0x95, 0xb7, 0x3e, 0x0a, 0x99, 0xb5, 0x3e, 0xa8, 0xed, 0x0d, 0x3e,
  0x30, 0x59, 0x96, 0xbe, 0xf9, 0xa1, 0x45, 0xbf, 0xb5, 0xea, 0xdc, 0x3e,
  0xd3, 0xcf, 0xa8, 0x3e, 0x50, 0x29, 0x95, 0x3e, 0x62, 0xf2, 0x50, 0xbe,
  0x12, 0x6f, 0x75, 0xbe, 0x26, 0xb0, 0x12, 0xbe, 0x29, 0x6a, 0x27, 0xbe,
  0x8c, 0x0e, 0xbf, 0xbd, 0x57, 0x29, 0xf4, 0xbc, 0xa8, 0x83, 0x2e, 0x3e,
  0xde, 0x9a, 0x3b, 0x3e, 0x2e, 0x42, 0xe1, 0x3d, 0x93, 0x01, 0x89, 0x3e,
  0x08, 0xfa, 0x84, 0x3d, 0x01, 0x7f, 0x9f, 0x3d, 0x8c, 0x10, 0xc9, 0x3d,
  0x95, 0x90, 0x57, 0x3f, 0xaf, 0x0d, 0x0b, 0xbd, 0xf5, 0x23, 0x93, 0xbe,
  0x51, 0xd1, 0x3e, 0xbf, 0xb5, 0xe7, 0x91, 0x3e, 0xea, 0x23, 0x40, 0xbf,
  0x5e, 0xca, 0xb4, 0xbf, 0xee, 0x35, 0x48, 0xbe, 0xe5, 0x5f, 0x26, 0x3e,
  0x1e, 0x21, 0x56, 0x3e, 0x87, 0xa3, 0x04, 0xbd, 0xd4, 0xf9, 0x4d, 0x3e,
  0x44, 0x09, 0xbc, 0xbe, 0x88, 0xd9, 0x7c, 0xbe, 0x27, 0x5b, 0x42, 0x3e,
  0xdc, 0xc2, 0xea, 0x3d, 0x9b, 0xf4, 0x2b, 0xbe, 0xaa, 0x27, 0xa1, 0x3c,
  0x01, 0x8a, 0x70, 0x3e, 0x78, 0xb0, 0x1d, 0x3d, 0xb3, 0x90, 0xce, 0xbd,
  0xe1, 0x14, 0x8c, 0x3d, 0xaa, 0x62, 0x3d, 0x3e, 0xfa, 0xcf, 0xfe, 0x3e,
  0xa7, 0x54, 0xb3, 0xbd, 0xff, 0xb6, 0xb1, 0xbe, 0xd1, 0x13, 0x85, 0xbf,
  0x55, 0xf4, 0x55, 0x3e, 0xe9, 0x17, 0xa2, 0x3d, 0x67, 0x1d, 0x3c, 0xbf,
  0xd6, 0x1d, 0x24, 0xbd, 0x8a, 0x3b, 0xb3, 0xbe, 0x06, 0x06, 0x60, 0x3e,
  0x43, 0xb3, 0x8a, 0x3e, 0xec, 0x4d, 0x8c, 0x3e, 0x82, 0xfd, 0xc1, 0x3d,
  0x85, 0xf4, 0x5a, 0xbf, 0x18, 0x2a, 0xa9, 0xbc, 0x3c, 0x01, 0x26, 0xbe,
  0x64, 0x76, 0xd9, 0xbd, 0xb6, 0x63, 0x3a, 0x3f, 0xe8, 0x31, 0xaf, 0xbf,
  0x9c, 0xe7, 0xa8, 0x3e, 0x1f, 0xed, 0xba, 0xbe, 0xa3, 0x16, 0x32, 0xbf,
  0xa6, 0xb7, 0xe1, 0x3d, 0x03, 0xb6, 0x3e, 0xbf, 0x26, 0x5d, 0x36, 0xbe,
  0x96, 0x88, 0x4a, 0xbe, 0x6b, 0x80, 0xd3, 0xbd, 0xb3, 0x33, 0xb7, 0x3d,
  0x42, 0xc5, 0x56, 0xbf, 0xfd, 0xcb, 0xe6, 0xbe, 0x24, 0xa3, 0x9d, 0x3e,
  0xa9, 0x0a, 0xfa, 0xbe, 0xb9, 0x7d, 0x64, 0x3f, 0x70, 0xef, 0xd5, 0x3c,
  0x8e, 0x4a, 0xb5, 0x3d, 0x07, 0xa0, 0x1a, 0x3d, 0x76, 0x3f, 0x3c, 0xbe,
  0xe8, 0xb4, 0xed, 0xbd, 0x26, 0x18, 0x96, 0xbe, 0x3f, 0x88, 0xf1, 0x3d,
  0x23, 0x8b, 0x92, 0x3b, 0xad, 0x4e, 0x97, 0xbe, 0x50, 0xd5, 0x34, 0xbf,
  0xe8, 0xef, 0x82, 0x3f, 0x36, 0x34, 0x5b, 0x3d, 0xb8, 0x98, 0x72, 0x3d,
  0xe6, 0x00, 0x07, 0x3f, 0x28, 0x95, 0x1a, 0x3f, 0x43, 0xeb, 0x2c, 0xbf,
  0x42, 0x0c, 0x25, 0x3e, 0xa5, 0x2a, 0x84, 0x3d, 0x00, 0xdf, 0xc1, 0xbf,
  0xf9, 0x41, 0x5f, 0x3d, 0xa6, 0x4d, 0x7b, 0x3f, 0xec, 0x72, 0x1e, 0x3f,
  0x6e, 0x1f, 0x28, 0xbd, 0x12, 0x01, 0x52, 0x3d, 0x41, 0xfa, 0x4e, 0xbf,
  0x3d, 0xab, 0x74, 0x3e, 0xdb, 0x1c, 0xc3, 0xbc, 0xd0, 0x7e, 0xc6, 0xbd,
  0xff, 0xd8, 0x05, 0x3e, 0x1c, 0x83, 0xa5, 0xbf, 0xba, 0x20, 0x79, 0x3e,
  0xe6, 0x4d, 0x34, 0xbd, 0xb5, 0x90, 0xbf, 0xbf, 0x67, 0x20, 0x8a, 0x3f,
  0xc3, 0x3d, 0xaf, 0x3e, 0xce, 0x1d, 0x5b, 0xbf, 0xd9, 0x55, 0xe1, 0x3d,
  0xe5, 0x81, 0xd1, 0xbd, 0x19, 0x00, 0xab, 0xbf, 0x07, 0x5a, 0xd9, 0xbe,
  0x32, 0xe8, 0x95, 0xbc, 0xd9, 0x38, 0xe3, 0x3d, 0x58, 0xf3, 0xc4, 0x3c,
  0x96, 0x5b, 0x67, 0xbc, 0x4c, 0x46, 0x25, 0x3e, 0xca, 0xdb, 0xf5, 0x3c,
  0x4e, 0xc4, 0x94, 0x3e, 0x65, 0x8f, 0x17, 0x3e, 0x84, 0x0d, 0x61, 0xbe,
  0x44, 0xae, 0x16, 0x3f, 0x5b, 0x91, 0x85, 0xbd, 0xd7, 0x74, 0x1d, 0xbf,
  0xe2, 0x3e, 0x88, 0xbe, 0xf0, 0x27, 0x96, 0xbf, 0xc6, 0x26, 0x7f, 0xbe,
  0x6c, 0xad, 0x3d, 0x3e, 0x8c, 0x52, 0xc3, 0xbd, 0x5b, 0x0d, 0x43, 0x3d,
  0xe8, 0xef, 0x11, 0xbd, 0xbb, 0x38, 0xf4, 0x3e, 0xc7, 0xd1, 0x2d, 0x3f,
  0x7b, 0xd5, 0x8c, 0x3e, 0x32, 0x02, 0x29, 0x3f, 0xe4, 0xc5, 0xd2, 0xbf,
  0xa8, 0x98, 0x0e, 0xbd, 0x71, 0xc8, 0xa3, 0x3e, 0x41, 0x02, 0x1f, 0x3c,
  0xd3, 0xcb, 0xda, 0x3c, 0x26, 0xe8, 0x26, 0x3b, 0x56, 0x6b, 0x9e, 0xbf,
  0x71, 0x77, 0x00, 0x3c, 0xd2, 0x91, 0x48, 0x3d, 0x6d, 0x5b, 0x55, 0xbe,
  0x11, 0x3e, 0x3c, 0xbe, 0x36, 0x71, 0xce, 0xbf, 0xbe, 0x82, 0x75, 0xbd,
  0xaf, 0xa9, 0xbc, 0xbd, 0xfa, 0xf8, 0x12, 0xbf, 0xec, 0xea, 0xab, 0xbe,
  0x64, 0xea, 0xec, 0x3e, 0xe7, 0xe6, 0xc6, 0xbf, 0x52, 0x3b, 0x34, 0xbb,
  0xc2, 0xc7, 0x96, 0x3e, 0xe9, 0xcf, 0x87, 0x3c, 0xe3, 0x10, 0xf9, 0xbf,
  0x3a, 0x28, 0x49, 0xbf, 0xb1, 0xa6, 0x18, 0xbd, 0x34, 0x5e, 0x4b, 0x3d,
  0x7e, 0xbc, 0xa2, 0x3e, 0x39, 0xe7, 0x94, 0xbd, 0xd0, 0x2b, 0x8e, 0xbd,
  0x2a, 0xf5, 0xdc, 0xbc, 0x3f, 0x11, 0x7f, 0x3e, 0x36, 0x83, 0xa9, 0x3e,
  0xcd, 0xda, 0x16, 0xbf, 0x05, 0x31, 0xca, 0xbc, 0x80, 0xb8, 0x8a, 0x3e,
  0xf5, 0x01, 0x88, 0xbf, 0xcc, 0x05, 0xc9, 0xbe, 0x86, 0xe1, 0x2a, 0x3e,
  0x42, 0xff, 0x8d, 0x3e, 0x6c, 0x3a, 0x9f, 0xbc, 0x8c, 0x25, 0x20, 0x3e,
  0x92, 0xfa, 0x2e, 0x3e, 0xb8, 0x19, 0x11, 0x3e, 0x31, 0xf4, 0x98, 0x3e,
  0x07, 0x07, 0x02, 0xbd, 0xb1, 0x5d, 0x82, 0x3d, 0xf1, 0xa3, 0xc0, 0xbe,
  0xfb, 0x44, 0x25, 0x3d, 0x85, 0x31, 0xce, 0x3e, 0x93, 0xb1, 0x8c, 0x3e,
  0x06, 0x22, 0x8a, 0xbd, 0x6b, 0x96, 0x35, 0xbf, 0x17, 0x46, 0xe1, 0x3d,
  0xa7, 0xe5, 0x08, 0x3f, 0xdd, 0xea, 0x4a, 0x3f, 0x61, 0xfc, 0x8e, 0x3e,
  0xbf, 0xff, 0xb6, 0x3c, 0xa6, 0x22, 0xb2, 0x3e, 0x15, 0xbb, 0x0a, 0x3f,
  0x38, 0x9e, 0x83, 0xbd, 0xef, 0xed, 0x99, 0x3e, 0xde, 0xb5, 0x03, 0xbf,
  0x0d, 0x7b, 0xad, 0x3d, 0x3a, 0xd7, 0xb7, 0xbe, 0xc9, 0x51, 0xed, 0x3e,
  0x1d, 0x62, 0x17, 0x3d, 0xb2, 0x0f, 0xd2, 0xbd, 0x2e, 0xc0, 0xcf, 0xbe,
  0xe7, 0xd5, 0x73, 0x3e, 0xe7, 0xfb, 0x6c, 0xbe, 0xdc, 0x93, 0x03, 0x3d,
  0x56, 0x16, 0x5f, 0x3f, 0x52, 0xe2, 0x61, 0xbe, 0xb4, 0x46, 0xc1, 0x3d,
  0x0b, 0xc1, 0xb4, 0x3e, 0xe8, 0x55, 0x48, 0xbe, 0x9e, 0xa7, 0xb7, 0xbc,
  0xfd, 0x33, 0x2f, 0x3d, 0xec, 0x8f, 0x9b, 0x3e, 0x9b, 0x40, 0x73, 0x3c,
  0x70, 0x84, 0x17, 0x3d, 0xb8, 0x94, 0x15, 0xbf, 0x2c, 0xea, 0x34, 0x3f,
  0x72, 0x37, 0x95, 0x3e, 0x13, 0x3f, 0xe2, 0x3d, 0x35, 0xe3, 0x75, 0x3e,
  0xf9, 0x65, 0x48, 0x3b, 0xfa, 0xd3, 0x00, 0xbd, 0xb5, 0xc6, 0x32, 0xbd,
  0xf5, 0xca, 0xc6, 0x3e, 0xd6, 0x50, 0xd4, 0xbe, 0xcb, 0xf6, 0x32, 0x3e,
  0x57, 0xd8, 0xdc, 0x3d, 0xf0, 0x62, 0xeb, 0x3d, 0x7c, 0x1f, 0xfe, 0xbe,
  0x60, 0x28, 0x09, 0x3f, 0x50, 0xbe, 0x9d, 0x3d, 0x81, 0x58, 0xb7, 0x3e,
  0x05, 0xf4, 0x87, 0x3e, 0xcb, 0x61, 0x1f, 0x3d, 0xdd, 0x76, 0x1a, 0xbc,
  0xd5, 0x52, 0x01, 0x3f, 0x85, 0x54, 0x9f, 0xbe, 0xef, 0xdb, 0x2c, 0x3d,
  0xea, 0xc2, 0xca, 0x3e, 0xbc, 0xeb, 0xff, 0xbe, 0x0d, 0x04, 0x81, 0xbd,
  0x43, 0x69, 0x6d, 0x3d, 0xaf, 0x81, 0xc2, 0x3d, 0x9d, 0x1f, 0x61, 0xbd,
  0xaf, 0x70, 0xf0, 0x3c, 0xa5, 0xc4, 0x31, 0xbe, 0x56, 0xdd, 0xc2, 0xbe,
  0xbc, 0xa2, 0x42, 0x3d, 0xf2, 0x20, 0x20, 0x3f, 0x56, 0xd7, 0x2b, 0x3d,
  0x28, 0xb9, 0x12, 0xbe, 0x1a, 0x3b, 0x1f, 0xbe, 0xb4, 0xe1, 0x81, 0x3f,
  0x8a, 0x4f, 0xd9, 0x3e, 0x9e, 0xe2, 0x1b, 0xbc, 0x1b, 0xe4, 0xac, 0x3d,
  0x76, 0x70, 0x5b, 0x3f, 0x12, 0x72, 0xbc, 0xbc, 0xc7, 0xd6, 0x2e, 0x3c,
  0x18, 0xdb, 0x55, 0x3e, 0x50, 0x5e, 0x97, 0x3d, 0x2f, 0xf6, 0xc1, 0x3e,
  0x0c, 0x41, 0x3e, 0xbe, 0x59, 0x65, 0x97, 0x3f, 0x06, 0x75, 0x5a, 0x3c,
  0x4c, 0x9a, 0xa4, 0x3f, 0x2e, 0x93, 0x34, 0x3d, 0xe7, 0x6c, 0x2c, 0xbd,
  0xaa, 0xb4, 0xb8, 0x3c, 0x16, 0x8e, 0x59, 0xbf, 0xfc, 0x16, 0x10, 0xbb,
  0x6f, 0x29, 0xc5, 0xbb, 0x38, 0x60, 0x6a, 0xbe, 0x4f, 0x5e, 0x8a, 0xbd,
  0x7a, 0x83, 0xf6, 0x3e, 0x0b, 0x8b, 0x02, 0x3d, 0x36, 0x2f, 0x22, 0xbd,
  0xda, 0x8b, 0xe4, 0x3d, 0xa0, 0xf8, 0xc8, 0x3d, 0xd8, 0x35, 0x9f, 0xbc,
  0x11, 0xc7, 0x97, 0xbf, 0x67, 0x60, 0x0f, 0x3e, 0xdc, 0x1c, 0x87, 0xbd,
  0x30, 0x23, 0x15, 0x3e, 0x35, 0xa4, 0x32, 0x3f, 0x7c, 0x26, 0xf7, 0x3e,
  0xf3, 0xdb, 0xcb, 0xbc, 0x3f, 0xe6, 0x8e, 0xbd, 0x69, 0xf0, 0x57, 0x3d,
  0xeb, 0x74, 0xe8, 0x3d, 0x09, 0x6c, 0x38, 0x3c, 0x5f, 0xc6, 0x2b, 0xbd,
  0x7a, 0x45, 0x8a, 0x3f, 0x2a, 0x27, 0x1f, 0xbe, 0xf4, 0xe2, 0xe7, 0x3e,
  0xc6, 0x78, 0x3c, 0xbc, 0xbd, 0xd1, 0x6e, 0xbd, 0x3e, 0x35, 0xdf, 0x3e,
  0xfb, 0x1d, 0xa8, 0x3e, 0xf1, 0xcc, 0xf9, 0xbd, 0x72, 0xb6, 0x91, 0x3f,
  0xb5, 0xc3, 0x7a, 0x3d, 0xa4, 0xab, 0x08, 0xbd, 0x28, 0x53, 0x9e, 0x3b,
  0xb9, 0x5e, 0x0f, 0xbd, 0x87, 0x86, 0xb2, 0x3e, 0xde, 0x9e, 0x51, 0x3d,
  0xb4, 0x74, 0x1a, 0xbc, 0xaf, 0xa4, 0x14, 0xbd, 0x53, 0x8f, 0xc7, 0xbd,
  0x05, 0x22, 0x7e, 0x3f, 0x22, 0x74, 0x80, 0x3f, 0x45, 0x56, 0x0b, 0xbe,
  0xcb, 0x01, 0x63, 0x3e, 0xdd, 0x7d, 0x14, 0xbd, 0xaf, 0x83, 0x8b, 0x3d,
  0xba, 0x50, 0x9e, 0xbf, 0x1c, 0x59, 0xe1, 0xbd, 0xca, 0x22, 0x84, 0xbe,
  0x8b, 0x6e, 0xa5, 0x3f, 0xf6, 0x3e, 0x18, 0xbf, 0x6d, 0x16, 0x18, 0xbe,
  0xc0, 0x73, 0x25, 0x3e, 0x4d, 0xd8, 0x3e, 0xbf, 0xcf, 0xbd, 0x3f, 0x3e,
  0x15, 0xc5, 0xfb, 0x3c, 0x40, 0x73, 0x9c, 0x3e, 0x75, 0x66, 0x31, 0x3f,
  0x54, 0x7b, 0xa7, 0x3d, 0x8c, 0x54, 0x35, 0x3e, 0x1b, 0x6a, 0x9e, 0x3d,
  0x06, 0x46, 0x77, 0xbe, 0x8d, 0xa0, 0x2f, 0xbe, 0xcb, 0xb7, 0x3b, 0x3f,
  0xb5, 0xba, 0x28, 0x3d, 0xde, 0x2c, 0x70, 0x3d, 0x77, 0xe2, 0xb6, 0xbe,
  0x25, 0x9c, 0x25, 0xbf, 0x8e, 0x0a, 0x20, 0x3f, 0xc5, 0xe5, 0xe8, 0xbd,
  0x7d, 0x7c, 0xb3, 0x3d, 0xc0, 0xce, 0x14, 0x3b, 0xca, 0x75, 0x2f, 0xbd,
  0x48, 0xc0, 0x49, 0xbf, 0xfc, 0xe6, 0x3a, 0x3f, 0x81, 0x46, 0xdc, 0x3d,
  0x1b, 0x6c, 0xe8, 0xbf, 0xf8, 0xc4, 0x12, 0x3e, 0xd2, 0x3f, 0x04, 0x3f,
  0xd8, 0x8f, 0x91, 0x3e, 0x70, 0x55, 0xde, 0xbd, 0xfd, 0xea, 0x62, 0x3d,
  0xd7, 0x16, 0x51, 0xbf, 0x51, 0xcd, 0x75, 0xbd, 0x31, 0xa0, 0x78, 0x3d,
  0xf0, 0xd9, 0xbf, 0xbd, 0x53, 0x9d, 0x47, 0xbd, 0x8b, 0x0b, 0xcf, 0xbf,
  0x38, 0x17, 0x12, 0xbe, 0xd6, 0x1e, 0xe4, 0x3c, 0x4c, 0x53, 0xca, 0xbf,
  0x7f, 0x02, 0x21, 0x3f, 0xa1, 0x6c, 0x48, 0x3e, 0x01, 0xa3, 0x4c, 0xbf,
  0x8a, 0xcd, 0x4a, 0x3c, 0x32, 0x8b, 0x51, 0xbd, 0x6f, 0xa8, 0xdb, 0xbf,
  0xf7, 0x50, 0xef, 0xbe, 0x05, 0x53, 0x96, 0xbe, 0xa1, 0xe0, 0x0d, 0x3e,
  0x16, 0x91, 0x1f, 0x3e, 0xed, 0x85, 0x40, 0xbd, 0x8f, 0xc1, 0x08, 0x3e,
  0x12, 0x75, 0x3c, 0x3d, 0x05, 0xc2, 0x9a, 0x3d, 0xb2, 0x34, 0x46, 0x3e,
  0x57, 0xda, 0x22, 0xbe, 0x2b, 0xae, 0x4c, 0xbd, 0xa2, 0x2f, 0x90, 0xbe,
  0x9d, 0xfb, 0x17, 0xbf, 0xfe, 0xf1, 0x4d, 0x3f, 0x60, 0xc4, 0x95, 0xbf,
  0xde, 0x1a, 0x42, 0x3e, 0x96, 0x01, 0x9d, 0x3e, 0x67, 0xf6, 0x3f, 0x3f,
  0x1a, 0x49, 0x80, 0xbe, 0x1a, 0xac, 0x03, 0x3c, 0x1d, 0xd8, 0xee, 0x3e,
  0xca, 0x3b, 0x5e, 0xbe, 0xe9, 0xc4, 0x82, 0x3f, 0x63, 0x3d, 0x20, 0xbf,
  0xd3, 0x7d, 0x10, 0x3d, 0xac, 0xed, 0xd3, 0x3e, 0x5c, 0xee, 0x8d, 0x3f,
  0x0a, 0x80, 0x45, 0x3e, 0x35, 0x6b, 0x31, 0xbc, 0x93, 0x43, 0x33, 0xbe,
  0x39, 0x5c, 0x5a, 0xbf, 0x89, 0x09, 0xbe, 0x3e, 0x76, 0x2d, 0x45, 0x3e,
  0xee, 0xbe, 0x9f, 0xbe, 0x65, 0x31, 0xcc, 0x3a, 0x1e, 0xa3, 0xb7, 0xbc,
  0x4d, 0x6c, 0xdd, 0x3b, 0x18, 0xc6, 0x9e, 0xbc, 0xf3, 0x4b, 0x3f, 0xbd,
  0xcc, 0x17, 0xc6, 0xbc, 0xde, 0xa2, 0x81, 0x3e, 0x15, 0x18, 0xa0, 0xbf,
  0x0c, 0xd4, 0xc2, 0x3e, 0x53, 0x26, 0x78, 0xbe, 0x6a, 0x31, 0xc7, 0x3d,
  0x1a, 0x20, 0x47, 0x3d, 0xee, 0x7e, 0x73, 0x3c, 0x00, 0x46, 0x74, 0x3c,
  0xab, 0x7a, 0x8d, 0xbc, 0x9b, 0x12, 0xde, 0x3e, 0x55, 0x0c, 0xb8, 0xbd,
  0x66, 0x5c, 0x10, 0xbd, 0xed, 0x33, 0xc1, 0xbd, 0x6d, 0xb7, 0xa7, 0x3f,
  0xeb, 0x3d, 0xc1, 0xbe, 0x50, 0xed, 0x06, 0x3b, 0xdb, 0x20, 0xd7, 0xbd,
  0x00, 0x02, 0x00, 0xbe, 0x78, 0xe9, 0x24, 0xbd, 0x36, 0x6f, 0x0e, 0xbc,
  0x53, 0xec, 0xc4, 0xbe, 0xde, 0x9d, 0xa4, 0x3f, 0x4d, 0xbb, 0x9d, 0xbb,
  0x87, 0xfd, 0xb1, 0xbe, 0xd5, 0xb6, 0xc1, 0x3e, 0x14, 0x37, 0x88, 0xbe,
  0xcb, 0x85, 0xa3, 0x3e, 0x3c, 0x35, 0xe1, 0xbc, 0x48, 0x7c, 0x23, 0xbd,
  0x2a, 0x80, 0x0b, 0x3b, 0x04, 0x4d, 0x3a, 0x3e, 0xcc, 0x39, 0x3a, 0x3f,
  0x38, 0xae, 0x6f, 0x3c, 0xf8, 0xe5, 0xec, 0xbd, 0xee, 0xe7, 0x53, 0xbd,
  0x7b, 0x71, 0xd9, 0x3d, 0xd7, 0x85, 0x8a, 0x3e, 0x8c, 0x61, 0x92, 0xbf,
  0x14, 0xc4, 0x75, 0xbe, 0x3a, 0x0e, 0xe7, 0x3b, 0x07, 0x91, 0x51, 0x3e,
  0x26, 0xfc, 0x41, 0xbf, 0xf4, 0x55, 0x68, 0xbd, 0x71, 0x32, 0x9a, 0x3d,
  0x17, 0xc9, 0xbb, 0xbe, 0x6b, 0x17, 0x3b, 0xbf, 0x66, 0x7d, 0x61, 0x3f,
  0xeb, 0xdc, 0x97, 0xbf, 0xaa, 0x3d, 0xa0, 0x3c, 0xd6, 0x45, 0x62, 0x3e,
  0x9b, 0x47, 0x91, 0x3f, 0xf5, 0xb9, 0xac, 0x3d, 0xef, 0xd4, 0x42, 0xbe,
  0xfb, 0xb1, 0x9e, 0xbd, 0x30, 0x5f, 0x7a, 0xbf, 0x69, 0xd7, 0x21, 0x3f,
  0xf7, 0x4f, 0x5a, 0x3e, 0x16, 0xf9, 0x16, 0xbe, 0xfe, 0xfd, 0x3f, 0xbf,
  0x88, 0x55, 0xbd, 0xbc, 0xa9, 0xf3, 0x1a, 0xbd, 0x5a, 0x41, 0x87, 0x3d,
  0x19, 0x00, 0x28, 0xbc, 0x11, 0x3e, 0xd3, 0xbd, 0xd8, 0x39, 0x05, 0xbf,
  0x4e, 0x8d, 0x6a, 0xbf, 0xc1, 0x8b, 0x52, 0x3e, 0x1b, 0xaa, 0x6b, 0xbe,
  0xbb, 0x8c, 0xd4, 0x3d, 0x5b, 0x00, 0x27, 0x3d, 0x71, 0xa3, 0xd7, 0x3d,
  0x8d, 0x6f, 0x59, 0xbe, 0x75, 0x38, 0xc3, 0x3d, 0x3d, 0x6c, 0x33, 0xbe,
  0x5e, 0x78, 0xfc, 0x3b, 0x07, 0x60, 0x8d, 0x3d, 0x4e, 0x9f, 0x10, 0xbe,
  0x8e, 0x98, 0x51, 0x3f, 0x41, 0x76, 0xbf, 0xbe, 0xfd, 0xd2, 0x83, 0xbb,
  0xf0, 0xce, 0xf3, 0x3c, 0xe2, 0xfa, 0xc7, 0xbe, 0x33, 0xb1, 0x8a, 0x3d,
  0x93, 0xde, 0x87, 0xbc, 0xcc, 0x71, 0x24, 0xbe, 0x7c, 0x5d, 0x80, 0x3f,
  0xe5, 0x35, 0xcc, 0xbc, 0x7e, 0x50, 0x77, 0xbe, 0xcb, 0x71, 0x7e, 0xbe,
  0x1f, 0x66, 0x98, 0xbe, 0x44, 0x09, 0xb3, 0x3d, 0x28, 0xa0, 0x4c, 0x3e,
  0x5f, 0xc5, 0x9b, 0xbd, 0x40, 0x12, 0xc9, 0x3d, 0x45, 0x53, 0xbc, 0x3e,
  0xa4, 0x6d, 0x27, 0x3f, 0x50, 0x27, 0x82, 0x3e, 0xb0, 0x60, 0xc2, 0x3d,
  0xa0, 0xab, 0xc4, 0xbb, 0xa8, 0x01, 0x3c, 0xbe, 0x01, 0xe7, 0x09, 0xbf,
  0x3e, 0xe3, 0x6a, 0xbf, 0x59, 0x33, 0x16, 0xbe, 0x37, 0xc6, 0xec, 0xbc,
  0x8e, 0xab, 0x99, 0x3e, 0x7d, 0xc2, 0x65, 0xbf, 0xac, 0x96, 0xa8, 0xbc,
  0x58, 0x67, 0x3d, 0xbe, 0xc8, 0xa9, 0x38, 0x3d, 0xba, 0x87, 0x1b, 0x3e,
  0xcf, 0xc7, 0x0c, 0xbf, 0xe1, 0x65, 0x84, 0xbc, 0x3b, 0x11, 0xeb, 0x3e,
  0x06, 0xde, 0x90, 0x3d, 0xa2, 0xd4, 0x67, 0xbf, 0xa1, 0xe4, 0x7c, 0x3d,
  0xe1, 0xf1, 0x2a, 0x3d, 0x3d, 0x87, 0x17, 0xbd, 0xe9, 0x43, 0x20, 0x3f,
  0xad, 0x31, 0xa2, 0x3d, 0x02, 0x7a, 0x46, 0x3d, 0x04, 0xfc, 0xcf, 0x3d,
  0x06, 0xa0, 0x93, 0x3e, 0x67, 0x2b, 0x22, 0xbd, 0xfd, 0x61, 0x83, 0x3e,
  0xf7, 0x20, 0x35, 0x3d, 0xb3, 0xf7, 0x09, 0xbd, 0x45, 0x35, 0xa4, 0xbe,
  0xcf, 0x43, 0x37, 0x3d, 0x90, 0xd7, 0x61, 0x3f, 0xdd, 0xe7, 0xea, 0xbb,
  0x4c, 0x8f, 0x16, 0x3d, 0xb2, 0x81, 0xba, 0x3d, 0x35, 0xdb, 0x71, 0x3e,
  0xea, 0x2e, 0xd6, 0xbe, 0xb1, 0x48, 0xa6, 0xbd, 0x27, 0xbb, 0xdb, 0x3d,
  0xef, 0x88, 0xae, 0xbd, 0x1f, 0x49, 0xc7, 0xbe, 0x6d, 0x65, 0x15, 0x3d,
  0x98, 0x67, 0x80, 0x3a, 0x65, 0x2e, 0x33, 0xbf, 0x01, 0xfe, 0x3b, 0x3d,
  0x9a, 0x31, 0xc3, 0x3d, 0xf6, 0xef, 0x1c, 0x3e, 0xa8, 0x8e, 0x0d, 0x3e,
  0x81, 0xb3, 0x8d, 0xbe, 0x82, 0x2b, 0x38, 0xbe, 0x5b, 0xad, 0x0a, 0xbd,
  0x86, 0x6c, 0x8b, 0xbf, 0xae, 0x62, 0x0d, 0x3f, 0x53, 0x83, 0xda, 0xbd,
  0x43, 0xdc, 0xab, 0x3b, 0x6e, 0x9b, 0x92, 0x3c, 0x4b, 0xfb, 0xf3, 0xbe,
  0x1d, 0x4d, 0x2f, 0x3d, 0x59, 0x66, 0x3e, 0x3d, 0x42, 0x7e, 0x1e, 0x3e,
  0x19, 0xac, 0x27, 0x3d, 0xcd, 0x54, 0x2e, 0xbf, 0x12, 0xa7, 0x84, 0xbf,
  0x6d, 0x66, 0x70, 0x3e, 0xc4, 0xb7, 0x5a, 0xbe, 0x62, 0x1b, 0xa9, 0x3d,
  0xb6, 0x0a, 0x52, 0x3e, 0xcc, 0x4d, 0x7b, 0x3e, 0x9f, 0xfc, 0xa0, 0x3d,
  0x44, 0xd8, 0x13, 0x3f, 0x4f, 0x75, 0x84, 0xbf, 0xf1, 0x34, 0x01, 0x3e,
  0x97, 0xd0, 0x7e, 0xbe, 0xed, 0x15, 0xcd, 0x3d, 0x5e, 0xbf, 0x15, 0x3e,
  0xd1, 0x8f, 0x83, 0x3e, 0x17, 0x58, 0xfa, 0x3d, 0x6b, 0xf1, 0x79, 0xbd,
  0xfd, 0xc2, 0x21, 0x3f, 0x77, 0xa3, 0xb7, 0x3d, 0xde, 0xf9, 0x1c, 0x3f,
  0x41, 0xdc, 0x50, 0x3e, 0xff, 0x16, 0x42, 0x3d, 0x7e, 0x2d, 0x6f, 0xbe,
  0x33, 0x1d, 0x37, 0xbf, 0x75, 0x3c, 0xb9, 0x3d, 0x83, 0x63, 0x23, 0x3e,
  0x3e, 0x0f, 0xd4, 0xbe, 0x48, 0x71, 0x8b, 0x3e, 0x8d, 0x67, 0x51, 0xbe,
  0xdb, 0x89, 0x74, 0xbe, 0x11, 0xdc, 0xa3, 0x3e, 0x25, 0xd8, 0x41, 0x3d,
  0x63, 0x9b, 0x70, 0xbe, 0x3d, 0xa7, 0x2f, 0x3e, 0x94, 0x00, 0x5f, 0xbf,
  0x31, 0x61, 0x07, 0x3d, 0xc1, 0x3f, 0x14, 0x3e, 0x58, 0x01, 0xc6, 0x3d,
  0xdc, 0x89, 0x51, 0x3e, 0x04, 0x89, 0x90, 0xbe, 0xc7, 0x83, 0x47, 0xbd,
  0x98, 0x35, 0xe5, 0x3d, 0x7f, 0x47, 0x79, 0x3e, 0x11, 0xb5, 0x10, 0xbf,
  0x1f, 0x36, 0x0f, 0x3e, 0xe0, 0xbc, 0x54, 0xbe, 0x62, 0x07, 0x24, 0x3f,
  0xfe, 0xc8, 0x15, 0xbe, 0x06, 0x36, 0x03, 0x3e, 0x17, 0xb8, 0x26, 0xbd,
  0xe4, 0xc4, 0xc7, 0xbd, 0xfb, 0xe2, 0xf4, 0xbd, 0xda, 0xf2, 0xe4, 0x3c,
  0x68, 0x97, 0x3b, 0xbe, 0xaf, 0xb8, 0x23, 0x3e, 0x5b, 0x29, 0xe6, 0xbd,
  0xaf, 0x3d, 0x01, 0xbd, 0x7d, 0xbe, 0xfc, 0x3d, 0xba, 0xee, 0x2f, 0xbe,
  0x88, 0xaf, 0xfd, 0x3e, 0x32, 0x14, 0x19, 0x3e, 0x53, 0x2f, 0x04, 0xbe,
  0x1d, 0xf6, 0xbd, 0xbe, 0x35, 0xe0, 0x20, 0x3c, 0x6f, 0xc4, 0x95, 0x3e,
  0xbe, 0x53, 0x23, 0xbe, 0xf8, 0x44, 0xab, 0xbc, 0xb1, 0x53, 0x3b, 0xbe,
  0x4a, 0x9d, 0x7d, 0xbe, 0xec, 0x85, 0xae, 0x3e, 0x44, 0x7e, 0x85, 0xbf,
  0xf9, 0x50, 0x79, 0xbe, 0xc3, 0x96, 0xb6, 0xbe, 0x9e, 0xb9, 0xbd, 0xbd,
  0x35, 0x29, 0x5d, 0xbe, 0x90, 0x6c, 0x48, 0xbe, 0x64, 0xf8, 0x49, 0x3d,
  0x58, 0x36, 0x0b, 0x3f, 0x34, 0x86, 0xfd, 0x3e, 0x23, 0x09, 0xb9, 0x3d,
  0x33, 0x4d, 0xfb, 0x3e, 0xdf, 0x2e, 0x0d, 0x3f, 0x8d, 0xa8, 0xdf, 0x3c,
  0x12, 0x61, 0x19, 0x3e, 0xcd, 0x6c, 0x8e, 0x3d, 0x87, 0xe3, 0x7b, 0x3c,
  0x82, 0x2e, 0x82, 0xbe, 0x4f, 0x3d, 0xc5, 0xbc, 0x56, 0xf7, 0x84, 0xbc,
  0x28, 0xfa, 0xf3, 0x3d, 0x9f, 0x11, 0x93, 0xbe, 0x60, 0x8e, 0xa9, 0x3e,
  0x24, 0x93, 0x19, 0x3e, 0xca, 0x7e, 0x9b, 0xbd, 0xab, 0xb9, 0x0e, 0xbc,
  0xe2, 0x13, 0xd1, 0xbe, 0xb8, 0x31, 0x27, 0xbf, 0xbc, 0x76, 0x9b, 0x3e,
  0x46, 0xfc, 0x98, 0x3d, 0x06, 0x83, 0x36, 0x3e, 0xcc, 0xeb, 0x2c, 0xbf,
  0x94, 0x0d, 0xfa, 0x3d, 0x6b, 0x4f, 0xf4, 0x3e, 0x8a, 0x69, 0x6c, 0x3e,
  0x63, 0x50, 0x65, 0xbe, 0xd8, 0x94, 0x57, 0xba, 0xce, 0xa1, 0x8d, 0x3e,
  0x0e, 0x16, 0x60, 0xbf, 0xde, 0x9d, 0x93, 0x3d, 0x76, 0xe0, 0x36, 0xbe,
  0x00, 0x91, 0x27, 0x3e, 0x3c, 0xd5, 0x42, 0xbf, 0x61, 0x72, 0x20, 0xbe,
  0x52, 0x8d, 0x71, 0xbc, 0xe6, 0x6a, 0x70, 0xbf, 0x5f, 0x63, 0x75, 0x3e,
  0x0f, 0x3f, 0x02, 0xbf, 0x2f, 0x02, 0x67, 0xbf, 0xab, 0x9e, 0x8d, 0x3e,
  0xe6, 0x2c, 0x42, 0xbc, 0x21, 0x68, 0x9a, 0xbf, 0x3a, 0x99, 0x09, 0x3f,
  0x4b, 0x1b, 0xa6, 0xbe, 0x9b, 0x3d, 0x9c, 0xbc, 0x4f, 0x22, 0x3a, 0xbc,
  0x97, 0x2e, 0x2d, 0xbe, 0x4a, 0x44, 0xa2, 0xbd, 0x74, 0xfd, 0x2d, 0x3d,
  0x7d, 0x7f, 0x76, 0x3e, 0x5c, 0x6f, 0xdd, 0x3d, 0x83, 0xf1, 0x56, 0xbe,
  0x3c, 0x2f, 0x06, 0xbf, 0xda, 0xee, 0x3a, 0xbd, 0x14, 0xe8, 0x89, 0x3e,
  0x04, 0x6b, 0x76, 0x3e, 0xed, 0xf7, 0x8e, 0xbf, 0x09, 0x0a, 0x34, 0xbe,
  0x98, 0xa8, 0x93, 0xbc, 0x1e, 0xfd, 0xc7, 0x3b, 0xf1, 0xe7, 0x05, 0xbd,
  0x28, 0xef, 0x12, 0x3f, 0x3f, 0xe3, 0xe4, 0xbd, 0xa8, 0x65, 0x7c, 0x3d,
  0x55, 0xda, 0x18, 0xbf, 0x57, 0xa5, 0x0a, 0x3e, 0xcc, 0xbf, 0x74, 0x3f,
  0xf1, 0xd4, 0xb1, 0xbe, 0x36, 0x63, 0xa0, 0x3e, 0x08, 0x75, 0x08, 0xbf,
  0xec, 0xcf, 0x2d, 0x3c, 0xcd, 0x8a, 0xd0, 0x3d, 0x89, 0x53, 0x2c, 0x3e,
  0xd7, 0x11, 0x09, 0xbf, 0x79, 0xd6, 0xc9, 0xbe, 0x5b, 0xa3, 0xbe, 0x3d,
  0x6f, 0xdc, 0xf4, 0xb9, 0xcc, 0x92, 0xa9, 0x3e, 0x0d, 0x6a, 0xe9, 0xbd,
  0x35, 0x56, 0xd7, 0x3e, 0x0c, 0xfa, 0xbc, 0x3d, 0x34, 0xc7, 0x83, 0x3e,
  0x0a, 0xe2, 0x08, 0x3d, 0x3c, 0x15, 0xe6, 0xbe, 0x85, 0xa0, 0x1d, 0xbf,
  0xf6, 0x7c, 0xc0, 0x3c, 0xac, 0xdb, 0x01, 0xbf, 0xa0, 0xfb, 0xa3, 0x3e,
  0x7c, 0x33, 0x82, 0x3d, 0x11, 0xfb, 0xee, 0xbc, 0xd0, 0xbc, 0x00, 0x3e,
  0x02, 0xb5, 0x40, 0xbd, 0xe5, 0xc9, 0xbf, 0x3e, 0xa8, 0x46, 0xf2, 0xbe,
  0x54, 0xe5, 0x07, 0x3d, 0x8b, 0xc9, 0x89, 0x3e, 0xc2, 0x90, 0x23, 0xbd,
  0x27, 0x8f, 0x5b, 0x3f, 0xab, 0x0e, 0x63, 0x3e, 0x61, 0x83, 0x3a, 0x3d,
  0x51, 0x26, 0x5e, 0x3d, 0xc5, 0xf4, 0x1f, 0x3e, 0x42, 0x7f, 0x08, 0x3d,
  0xba, 0x37, 0x27, 0xbf, 0x12, 0xec, 0xdd, 0xbe, 0xed, 0x1a, 0x87, 0x3c,
  0x00, 0x03, 0x57, 0x3c, 0x5f, 0xdb, 0x5f, 0x3d, 0x5b, 0xc8, 0x9a, 0x3e,
  0x98, 0x14, 0xfd, 0xbe, 0xf2, 0x37, 0x38, 0x3d, 0xd3, 0x69, 0x4a, 0xbe,
  0x14, 0x43, 0x42, 0xbf, 0xc7, 0x83, 0x05, 0x3d, 0x7e, 0x6c, 0xd6, 0xbb,
  0x71, 0x90, 0xb7, 0x3e, 0x46, 0xd2, 0xaa, 0x3e, 0xc1, 0xbe, 0xcb, 0xbc,
  0x47, 0x0d, 0x6b, 0x3d, 0x37, 0x9c, 0xa1, 0xbe, 0x90, 0xce, 0xfb, 0xbd,
  0x39, 0x3d, 0xd0, 0xbe, 0xe3, 0x9a, 0x3b, 0x3e, 0xdc, 0xf6, 0x6f, 0xbe,
  0xc1, 0x6f, 0x09, 0x3e, 0xba, 0x9e, 0x9f, 0x3e, 0xde, 0xbb, 0xb7, 0x3d,
  0xe6, 0x9d, 0xc2, 0x3c, 0x05, 0xfc, 0x20, 0x3e, 0x68, 0x5f, 0xaf, 0xb9,
  0x33, 0xaf, 0x01, 0xbe, 0x0a, 0x2c, 0x89, 0xbb, 0xed, 0xcf, 0xce, 0x3e,
  0x85, 0x62, 0x19, 0xbe, 0x0e, 0x21, 0x35, 0x3c, 0xba, 0x11, 0xd3, 0x3c,
  0x1a, 0xf7, 0xf7, 0xbe, 0xd8, 0x6c, 0x80, 0x3d, 0xf2, 0xd3, 0x38, 0xbe,
  0x35, 0x91, 0x6c, 0x3e, 0xd7, 0xcd, 0x9f, 0xbd, 0x5e, 0x5c, 0xdb, 0xbe,
  0x77, 0xe0, 0xaa, 0xbf, 0x75, 0x42, 0x97, 0x3d, 0x4b, 0x8f, 0xa0, 0xbf,
  0xa4, 0x38, 0x03, 0xc0, 0x70, 0x90, 0xe3, 0x3c, 0x58, 0x6d, 0x39, 0xbf,
  0xbb, 0x42, 0xb1, 0x3c, 0xc1, 0xa0, 0x99, 0xbc, 0xb3, 0x5f, 0x0b, 0xbe,
  0xc6, 0x53, 0x34, 0xbe, 0x3f, 0x3d, 0x75, 0xbc, 0x11, 0x3d, 0x01, 0x3d,
  0x65, 0x01, 0x28, 0x3e, 0xfb, 0x32, 0xad, 0x3d, 0x58, 0xe3, 0x43, 0x3e,
  0x49, 0x57, 0x31, 0xbe, 0xa7, 0xa3, 0xdd, 0x3d, 0xa9, 0xf9, 0x89, 0x3e,
  0xa4, 0x01, 0x28, 0xbe, 0xf6, 0x32, 0xe3, 0x3e, 0xb7, 0xbf, 0x92, 0x3e,
  0x3e, 0x72, 0xeb, 0x3c, 0x5e, 0x38, 0x5a, 0xbe, 0xd0, 0x98, 0xc6, 0xbf,
  0xa1, 0xca, 0x1d, 0x3d, 0x16, 0x28, 0x93, 0x3e, 0x01, 0xf6, 0xd0, 0xbf,
  0xed, 0xb6, 0x21, 0xbd, 0xec, 0x86, 0x97, 0x3c, 0xaf, 0xff, 0x1c, 0x3e,
  0x58, 0x72, 0x34, 0x3f, 0x9d, 0x62, 0xb6, 0xbd, 0x87, 0xad, 0x18, 0x3d,
  0xd8, 0x12, 0xfe, 0xbf, 0xda, 0xa2, 0x84, 0xbd, 0x44, 0x42, 0x2e, 0x3e,
  0x44, 0x3f, 0xef, 0x3d, 0x20, 0x85, 0x92, 0x3e, 0xd7, 0xe8, 0xd4, 0xbf,
  0x20, 0x01, 0xfd, 0x3c, 0xa9, 0x1e, 0x42, 0xb8, 0x29, 0x7f, 0xa1, 0xbe,
  0x57, 0xac, 0x07, 0xbb, 0x68, 0x75, 0xed, 0xbf, 0xb8, 0x68, 0x4e, 0x3e,
  0x6a, 0xb6, 0x44, 0xbe, 0x1d, 0xbc, 0x38, 0xbf, 0x3d, 0xc4, 0x5d, 0xbd,
  0x61, 0x14, 0x4a, 0x3d, 0xc3, 0xdd, 0xa8, 0xbf, 0xf8, 0xc0, 0xdf, 0x3d,
  0x1d, 0x64, 0xad, 0xbf, 0xee, 0xcd, 0x02, 0x3c, 0x8e, 0x6e, 0xb2, 0x3d,
  0xae, 0xd4, 0xb6, 0x3d, 0x9f, 0xc6, 0x39, 0xbd, 0xed, 0xe0, 0xd8, 0xbf,
  0x9b, 0x41, 0xa3, 0xbf, 0xc2, 0x1a, 0x82, 0xbf, 0xa2, 0x2a, 0x23, 0x3e,
  0x38, 0xf5, 0x5c, 0xbb, 0x9a, 0x17, 0x09, 0xbf, 0x8c, 0x50, 0x4d, 0xbf,
  0x09, 0x4d, 0x84, 0x3d, 0x3d, 0x8a, 0x52, 0x3c, 0xe7, 0x38, 0x0f, 0x3d,
  0x14, 0xe3, 0xa1, 0x3d, 0x94, 0xa2, 0x89, 0x3e, 0x9a, 0xae, 0xbe, 0xbe,
  0xe6, 0xcb, 0x84, 0xbf, 0x8f, 0x93, 0x17, 0xbd, 0x35, 0xcc, 0x86, 0xbe,
  0x48, 0xf2, 0x03, 0xbb, 0x50, 0x42, 0x41, 0x3d, 0xa8, 0x2a, 0xcb, 0xbb,
  0x14, 0x8a, 0x62, 0xbf, 0x0d, 0xaa, 0xb9, 0xbd, 0x4d, 0x7a, 0x03, 0x3e,
  0x40, 0x7a, 0x99, 0xbd, 0xda, 0x88, 0x0a, 0xbd, 0x2c, 0x55, 0x48, 0xbf,
  0x56, 0x16, 0xce, 0x3d, 0xee, 0xea, 0xba, 0x3d, 0x11, 0x61, 0x99, 0xbd,
  0x21, 0xae, 0x25, 0xbe, 0x46, 0xeb, 0xbb, 0xbd, 0x2a, 0x7c, 0xe1, 0x3d,
  0x42, 0x6a, 0x05, 0x3e, 0x86, 0x1c, 0x10, 0xbe, 0xbe, 0xb0, 0x81, 0x3e,
  0x5d, 0xe4, 0x11, 0xbd, 0x98, 0x66, 0xe1, 0xbe, 0xcc, 0x2a, 0xf4, 0xbe,
  0x8c, 0x72, 0x2f, 0xbf, 0x15, 0x80, 0xa1, 0x3e, 0x03, 0xdd, 0x64, 0x3d,
  0xe4, 0xbd, 0x9b, 0xbf, 0x73, 0x1e, 0xfc, 0xbc, 0x99, 0xea, 0x22, 0x3e,
  0x37, 0xf2, 0x55, 0x3e, 0x12, 0x25, 0x86, 0x3d, 0x46, 0x23, 0x06, 0xbe,
  0x85, 0xf7, 0xa6, 0x3d, 0xce, 0xb4, 0x9e, 0xbf, 0xcb, 0x27, 0x0f, 0xbf,
  0x75, 0xea, 0xb6, 0xbf, 0x92, 0x95, 0xa5, 0xbd, 0xed, 0x2d, 0xa0, 0xbd,
  0x7e, 0xcb, 0x62, 0x3d, 0x04, 0x3b, 0xb3, 0xbf, 0x68, 0x26, 0x65, 0xbe,
  0x80, 0x14, 0x23, 0x3d, 0x0e, 0x43, 0xaa, 0xbe, 0x89, 0xfc, 0x59, 0xbf,
  0x09, 0x98, 0x4d, 0x3f, 0xe0, 0x81, 0x89, 0xbf, 0x1c, 0xa0, 0x02, 0xbd,
  0x5f, 0x33, 0x02, 0x3f, 0x4c, 0xbe, 0xa0, 0x3f, 0xb1, 0x13, 0x73, 0x3e,
  0x6c, 0x9f, 0x8e, 0xbe, 0x95, 0xbd, 0x8c, 0xbc, 0x96, 0x6e, 0x86, 0xbf,
  0xe8, 0x88, 0x2b, 0x3f, 0x94, 0xfd, 0x29, 0xbc, 0x4a, 0xad, 0x43, 0xbe,
  0x44, 0x09, 0x34, 0xbf, 0x5b, 0xf8, 0x81, 0x3c, 0xe8, 0x96, 0x91, 0x3b,
  0x8a, 0x1a, 0x3d, 0x3c, 0x19, 0x19, 0x4e, 0x3c, 0x1d, 0x5d, 0xc5, 0x3a,
  0x01, 0x93, 0x2b, 0x3c, 0x35, 0xa6, 0x88, 0xbf, 0x91, 0xc3, 0xec, 0x3d,
  0xe9, 0x00, 0xe9, 0xbe, 0x2e, 0x7e, 0x35, 0x3e, 0xd2, 0x24, 0x9f, 0xbd,
  0x26, 0xbc, 0xe0, 0xbc, 0x79, 0xfe, 0x82, 0xbd, 0xe9, 0xf8, 0x82, 0x3d,
  0x09, 0xf6, 0xc7, 0x3d, 0x58, 0x5f, 0x77, 0xbc, 0xf0, 0x90, 0x4b, 0x3d,
  0xd7, 0x14, 0xd2, 0xbd, 0x7a, 0x6a, 0x8c, 0x3f, 0x2c, 0xbc, 0xbe, 0xbe,
  0x8d, 0x63, 0xa5, 0xbb, 0xac, 0xff, 0xc6, 0x3c, 0x56, 0x8a, 0xbd, 0xbe,
  0x84, 0x4f, 0x5d, 0x3c, 0x13, 0x1b, 0x27, 0xbc, 0x70, 0x17, 0xb7, 0xbe,
  0x8a, 0x96, 0x7d, 0x3f, 0x52, 0xe5, 0x2a, 0x3c, 0x03, 0xa2, 0xc3, 0xbe,
  0x1e, 0x86, 0x8c, 0xbe, 0x36, 0x81, 0x12, 0xbe, 0xb7, 0xc9, 0x9c, 0x3e,
  0x1b, 0x8c, 0x4e, 0x3e, 0xb6, 0x7f, 0x0f, 0xbd, 0x6f, 0x1a, 0x22, 0x3d,
  0x1d, 0x8e, 0x05, 0x3f, 0x84, 0x5f, 0x49, 0x3f, 0x0f, 0xf2, 0x20, 0x3e,
  0xd4, 0xaa, 0x10, 0xbe, 0x2a, 0x68, 0x61, 0xbd, 0x01, 0x9e, 0x91, 0xbe,
  0xd7, 0xd3, 0xd3, 0xbe, 0x93, 0xff, 0x51, 0xbf, 0xca, 0xb5, 0x79, 0xbe,
  0x5b, 0x57, 0x1b, 0x3d, 0x3f, 0x37, 0x17, 0x3e, 0x39, 0xd7, 0x3c, 0xbf,
  0x9b, 0x9c, 0x3d, 0x3f, 0x4f, 0x8d, 0xb3, 0x3c, 0x16, 0x77, 0x73, 0x3e,
  0x77, 0xc2, 0x80, 0x3c, 0x58, 0x3a, 0x4d, 0xbd, 0x19, 0xf3, 0xb4, 0x3e,
  0xd5, 0x18, 0x3b, 0xbe, 0x68, 0xd1, 0x9a, 0x3c, 0xd0, 0x07, 0x59, 0x3d,
  0x46, 0x61, 0x52, 0xbc, 0x23, 0x15, 0xee, 0x3e, 0xd6, 0x19, 0x0e, 0x3f,
  0x62, 0x13, 0x06, 0x3e, 0xc5, 0xca, 0x79, 0x3d, 0x1e, 0x7b, 0xd7, 0xbd,
  0xd3, 0x5d, 0x16, 0x3f, 0x67, 0x01, 0xe4, 0x3e, 0xd7, 0x8e, 0x4f, 0xbd,
  0x4b, 0x0b, 0x14, 0xbe, 0x8d, 0xd9, 0x80, 0x3b, 0x7d, 0x93, 0xa0, 0xbf,
  0x96, 0xbd, 0xe1, 0xbf, 0x25, 0x77, 0x59, 0x3e, 0xf6, 0x6f, 0xf4, 0x3e,
  0x88, 0xc3, 0x4f, 0x3d, 0x65, 0xe0, 0x2c, 0x3f, 0x69, 0x04, 0x6b, 0x3d,
  0x01, 0x5a, 0xb3, 0xbc, 0x48, 0xa7, 0x8d, 0xbd, 0x4d, 0x99, 0x02, 0x3f,
  0x1a, 0x1d, 0xca, 0xbd, 0xb6, 0x50, 0x7c, 0x3e, 0xfb, 0x5a, 0xbd, 0xbd,
  0x5b, 0x02, 0xd5, 0x3d, 0x2f, 0xbe, 0x17, 0x3f, 0xf4, 0x08, 0x13, 0x3d,
  0x71, 0x35, 0x15, 0x3f, 0xe2, 0x57, 0x35, 0xbe, 0x15, 0xd9, 0xf5, 0x3c,
  0x56, 0xe7, 0x27, 0x3f, 0xe4, 0x4c, 0x5d, 0xbd, 0xec, 0x71, 0xca, 0xbf,
  0x3a, 0xd7, 0xf7, 0x3e, 0x2c, 0xe0, 0xf0, 0xbd, 0xef, 0x44, 0x96, 0xbe,
  0x71, 0x53, 0x28, 0x3f, 0xfe, 0x6a, 0x9f, 0x3d, 0xc0, 0x9a, 0xe9, 0x3e,
  0x22, 0x80, 0x17, 0xbc, 0xb0, 0x9a, 0xb3, 0x3d, 0x1d, 0xe2, 0x04, 0x3f,
  0xab, 0xf3, 0xab, 0xbe, 0xe0, 0xdb, 0xaa, 0x3c, 0x3f, 0xd7, 0x28, 0x3e,
  0xf3, 0x77, 0x05, 0x3b, 0x66, 0x34, 0x27, 0x3f, 0x6b, 0xaf, 0xa1, 0xbf,
  0x27, 0x68, 0x03, 0x3f, 0x81, 0xb8, 0x86, 0x3e, 0x3e, 0x74, 0xb9, 0x3d,
  0x61, 0x1b, 0x2c, 0x3f, 0xc2, 0x35, 0x0f, 0xbf, 0x5b, 0xe8, 0x6d, 0x3d,
  0xd9, 0xd9, 0x9c, 0xbd, 0x14, 0x87, 0x91, 0xbc, 0xc7, 0x0e, 0x5a, 0xbc,
  0xb8, 0xac, 0x0a, 0xbf, 0x6d, 0x75, 0xc0, 0xbe, 0x2a, 0x0d, 0x07, 0x3f,
  0x94, 0x24, 0xd2, 0xbd, 0xc9, 0x10, 0xc5, 0x3e, 0xb2, 0x0d, 0xa3, 0x3d,
  0xe8, 0x6c, 0x74, 0x3e, 0xb0, 0x50, 0x22, 0x3e, 0x12, 0x6d, 0xb5, 0xbd,
  0xd2, 0xe6, 0x59, 0xbd, 0xc8, 0x38, 0x75, 0xbe, 0xe2, 0x9c, 0x03, 0x3e,
  0xdb, 0x97, 0xbe, 0x3e, 0x0d, 0x4b, 0x4a, 0xbe, 0xe1, 0xaa, 0x62, 0xbf,
  0x4b, 0x03, 0xbb, 0x3e, 0x03, 0xe5, 0xbf, 0xbc, 0x5b, 0xec, 0xda, 0x3c,
  0xc8, 0x6a, 0xac, 0xbd, 0x08, 0x3e, 0x18, 0x3e, 0x7b, 0x70, 0xe6, 0xbe,
  0x15, 0x67, 0x04, 0xbf, 0x69, 0xd0, 0xbc, 0x3e, 0xb1, 0x19, 0x92, 0xbe,
  0x86, 0xe2, 0x33, 0x3e, 0xa8, 0xd9, 0xb4, 0x3e, 0xd9, 0xbf, 0x34, 0x3f,
  0x76, 0x2e, 0xfe, 0xbd, 0xa6, 0xed, 0xc6, 0x3d, 0xbb, 0x07, 0xe4, 0xbe,
  0xf2, 0x14, 0x9d, 0x3e, 0xc3, 0x0b, 0x5e, 0x3e, 0xe3, 0xaf, 0x1b, 0xbc,
  0x1e, 0x53, 0x98, 0x3e, 0x65, 0x3e, 0xd0, 0xbe, 0x6f, 0xba, 0x20, 0xbe,
  0xb2, 0xa5, 0x5e, 0x3b, 0x0e, 0xe2, 0x6e, 0xbe, 0x6e, 0x40, 0x0d, 0x3f,
  0xf9, 0x9e, 0x94, 0x3e, 0x6a, 0x9b, 0x8a, 0xbe, 0x4d, 0x38, 0xbb, 0x3e,
  0x46, 0x17, 0x43, 0x3d, 0x9e, 0xd1, 0xa8, 0xbe, 0x39, 0x6c, 0xe0, 0xbe,
  0xf3, 0x7a, 0x45, 0xbb, 0xd6, 0x05, 0xa4, 0x3d, 0xb7, 0x23, 0x33, 0x3e,
  0x56, 0x8b, 0xfc, 0x3b, 0x03, 0x76, 0x1e, 0xbd, 0x73, 0x16, 0x91, 0xbd,
  0x0a, 0x73, 0x46, 0x3f, 0x82, 0x4f, 0xff, 0x3e, 0x33, 0x4c, 0xa4, 0xbd,
  0x17, 0x28, 0xe0, 0x3d, 0xbd, 0xe6, 0x36, 0xbd, 0x15, 0x96, 0xa0, 0xbe,
  0xe8, 0x8d, 0xda, 0x3d, 0xdd, 0x7c, 0xa8, 0xbe, 0x78, 0x1f, 0xc2, 0x3d,
  0x8e, 0xfa, 0x4f, 0x3f, 0x48, 0x31, 0x11, 0x3e, 0xc1, 0x76, 0x5b, 0xbf,
  0x99, 0x52, 0xcd, 0x3c, 0x60, 0x44, 0xaa, 0x3e, 0xda, 0xd9, 0xff, 0x3e,
  0xa6, 0x8b, 0x2c, 0x3d, 0xd0, 0xa8, 0x8e, 0x3d, 0xb4, 0x66, 0xdc, 0x3d,
  0x57, 0xaa, 0xec, 0xbc, 0x5b, 0x17, 0x1b, 0x3e, 0xa6, 0x4c, 0x8e, 0xbc,
  0xd0, 0xc8, 0x26, 0xbf, 0xe3, 0x71, 0x77, 0xbf, 0x43, 0x9b, 0x33, 0xbe,
  0x4a, 0x5a, 0x4b, 0x3c, 0x1c, 0xef, 0xf1, 0xbc, 0xb8, 0x95, 0x0f, 0xbf,
  0x38, 0x6d, 0x25, 0x3e, 0x67, 0x34, 0x4e, 0x3e, 0x1d, 0xde, 0x14, 0x3f,
  0x0a, 0x05, 0x1f, 0xbd, 0xef, 0xe7, 0xb3, 0x3f, 0xe4, 0x6a, 0xa2, 0x3f,
  0x37, 0x5c, 0xa7, 0x3e, 0xae, 0x99, 0x1c, 0xbe, 0x9d, 0x2b, 0x2b, 0x3c,
  0x84, 0x3c, 0xaa, 0xbe, 0x40, 0x0d, 0x9f, 0xbc, 0x80, 0xf0, 0x29, 0x3e,
  0x79, 0x70, 0xe0, 0x3d, 0x81, 0xc0, 0x23, 0xbf, 0x17, 0xe9, 0xb3, 0xbc,
  0xbf, 0xf0, 0xb2, 0x3e, 0xed, 0x0b, 0x86, 0x3d, 0xcc, 0x3d, 0xa2, 0xbd,
  0x15, 0x2d, 0x3a, 0xbf, 0xb3, 0xf6, 0x0a, 0x3e, 0xb1, 0x79, 0x98, 0xbe,
  0xc2, 0xa8, 0xc9, 0x3e, 0xdf, 0x00, 0xbf, 0xbe, 0x8c, 0xa4, 0x04, 0xbc,
  0x6e, 0xbe, 0xb4, 0x3c, 0xff, 0x37, 0xaf, 0x3f, 0x1b, 0x4d, 0xce, 0xbe,
  0xdd, 0x47, 0x05, 0x3d, 0xcf, 0xfb, 0xc8, 0x3e, 0x15, 0x45, 0x9d, 0xbe,
  0x8c, 0x00, 0x53, 0x3e, 0x5e, 0xf9, 0x3b, 0xbf, 0x61, 0xef, 0xde, 0x3e,
  0x0e, 0x1a, 0xb6, 0xbc, 0x1d, 0xa4, 0x46, 0xbf, 0x08, 0x9c, 0x0c, 0x3f,
  0xeb, 0x76, 0x0c, 0xbd, 0xd4, 0x00, 0x1f, 0x3b, 0x49, 0x67, 0x26, 0xbd,
  0xd2, 0xc2, 0x13, 0xbe, 0x75, 0x69, 0xaf, 0x3f, 0x05, 0xc6, 0xf2, 0xbe,
  0xbe, 0x8a, 0x05, 0x3f, 0x50, 0xe4, 0xf3, 0xbd, 0x10, 0xd7, 0x42, 0xbe,
  0xde, 0x09, 0xfa, 0x3e, 0xeb, 0x76, 0x21, 0x3d, 0x4a, 0x5b, 0x3b, 0x3e,
  0x93, 0xbe, 0x4c, 0xbd, 0x64, 0xcb, 0x34, 0xbe, 0xaf, 0x2f, 0xdf, 0xbd,
  0x19, 0xf5, 0x4e, 0x3d, 0xa0, 0x2f, 0x97, 0xbe, 0x3a, 0xf8, 0x81, 0x3e,
  0x48, 0xc3, 0x13, 0xbd, 0xcb, 0xe7, 0xf8, 0x3d, 0xdb, 0x53, 0x38, 0xbf,
  0xfb, 0x86, 0xae, 0x3e, 0x4f, 0x04, 0xcf, 0x3c, 0x11, 0x9f, 0x0a, 0x3e,
  0xac, 0x3c, 0xcf, 0x3e, 0x27, 0x92, 0xb6, 0x3c, 0xca, 0xe4, 0xbc, 0x3e,
  0x3b, 0x1f, 0x7e, 0x3e, 0x32, 0x16, 0xd8, 0xbd, 0x44, 0xd5, 0x93, 0x3d,
  0x96, 0x53, 0x60, 0x3e, 0x49, 0x26, 0x0f, 0x3e, 0x56, 0x85, 0x06, 0xbe,
  0x56, 0xd0, 0xac, 0xbd, 0xaa, 0xfa, 0x54, 0xbd, 0x03, 0x46, 0x16, 0x3f,
  0x65, 0xca, 0x22, 0x3f, 0xe4, 0xce, 0x89, 0x3d, 0x62, 0xed, 0x2d, 0x3f,
  0xfd, 0x0b, 0xcf, 0xbd, 0x71, 0x85, 0x4b, 0x3d, 0xff, 0xec, 0x4d, 0xbc,
  0xbf, 0xf7, 0x31, 0x3e, 0x2c, 0x3d, 0xe8, 0xbd, 0x89, 0x55, 0x38, 0x3e,
  0x67, 0x8d, 0x21, 0x3f, 0xd1, 0xc1, 0x8f, 0x3e, 0x9e, 0x53, 0xe1, 0xbe,
  0xe1, 0xa3, 0x8a, 0xbc, 0x58, 0x3f, 0x93, 0xbe, 0x3a, 0x07, 0xad, 0x3e,
  0x97, 0x65, 0xb9, 0xbc, 0x56, 0x40, 0xf7, 0xbc, 0x68, 0x23, 0xf0, 0xbd,
  0x80, 0x0f, 0xa7, 0x3d, 0x8f, 0x14, 0xb2, 0xbe, 0x4a, 0x31, 0xc2, 0x3d,
  0x50, 0x25, 0xb9, 0xbc, 0xfd, 0xbc, 0xcd, 0x3c, 0x8d, 0x23, 0x9b, 0xbd,
  0x26, 0x68, 0x11, 0xbf, 0x15, 0x35, 0x00, 0x3f, 0x44, 0x18, 0x64, 0x3d,
  0x19, 0x7c, 0xb7, 0x3d, 0xa1, 0x44, 0x45, 0xbd, 0xc9, 0x97, 0xb5, 0xbd,
  0x33, 0x9a, 0xcd, 0x3c, 0xfe, 0x00, 0xf1, 0x3e, 0x7a, 0xb7, 0xa3, 0x3d,
  0xb3, 0x63, 0x98, 0x3c, 0x9e, 0x29, 0x15, 0xbe, 0x6c, 0xb3, 0x50, 0x3f,
  0x32, 0x6c, 0x34, 0xbd, 0x81, 0x9e, 0x57, 0x3e, 0x79, 0xbf, 0x65, 0x3e,
  0x8e, 0xb3, 0x23, 0x3f, 0xf5, 0x17, 0xe7, 0xbe, 0x31, 0x9e, 0xd8, 0xbe,
  0x1b, 0xf7, 0x20, 0x3d, 0x4b, 0x25, 0x4a, 0xbc, 0x16, 0xa2, 0xae, 0xbd,
  0x0c, 0xe0, 0x6f, 0x3e, 0x5f, 0x64, 0x14, 0x3f, 0xb1, 0x2c, 0x97, 0xbe,
  0x69, 0x91, 0xfa, 0x3e, 0xd7, 0x53, 0x36, 0xbf, 0x9a, 0x83, 0x3f, 0x3e,
  0xaa, 0x60, 0x4d, 0xbe, 0x47, 0xda, 0x13, 0xbf, 0xd3, 0xff, 0xfc, 0xbe,
  0x2a, 0xde, 0x5a, 0xbf, 0xac, 0x3c, 0x11, 0xbf, 0xc5, 0xd9, 0x59, 0x3d,
  0x73, 0xc3, 0xf0, 0x3d, 0xde, 0xf2, 0xc4, 0x3e, 0xa0, 0x8c, 0x02, 0xbf,
  0xea, 0xf6, 0x14, 0x3e, 0xd8, 0x78, 0x39, 0x3e, 0x2d, 0x34, 0xb4, 0x3e,
  0x4c, 0x5c, 0xc6, 0xbe, 0x03, 0xd7, 0x46, 0xbf, 0x89, 0x2c, 0x5f, 0xbe,
  0xff, 0x68, 0x33, 0xbf, 0xaf, 0x62, 0x0b, 0x3f, 0x51, 0x9a, 0x85, 0x3d,
  0xc7, 0x02, 0xea, 0xbe, 0xd2, 0xc1, 0xd6, 0xbe, 0xa5, 0xc2, 0xd0, 0x3d,
  0x2b, 0x80, 0x76, 0x3e, 0xb1, 0x1b, 0x48, 0xbf, 0x95, 0xff, 0x2f, 0xbe,
  0x36, 0x6d, 0x8c, 0x3e, 0xcd, 0x7b, 0x05, 0xbf, 0x2f, 0x2f, 0xcc, 0x3e,
  0xb4, 0xac, 0xb5, 0xbe, 0xf5, 0xed, 0x50, 0xbe, 0x4b, 0x2e, 0x97, 0x3e,
  0xad, 0xb5, 0x22, 0x3d, 0x18, 0x50, 0xdd, 0xbe, 0x0d, 0xa5, 0x23, 0xbd,
  0x8d, 0x79, 0x00, 0x3f, 0xe6, 0xd7, 0xa8, 0xbe, 0xec, 0xbf, 0x6e, 0x3e,
  0x51, 0x1f, 0x18, 0xbf, 0xd6, 0x8f, 0x2f, 0xbe, 0x0e, 0x47, 0x39, 0xbf,
  0x64, 0xbf, 0x95, 0xbe, 0xbe, 0xda, 0x00, 0x3f, 0x9f, 0x16, 0x85, 0xbe,
  0x8a, 0x85, 0x12, 0x3e, 0xc6, 0x80, 0x0e, 0x3e, 0xa5, 0x75, 0xb9, 0xbe,
  0x09, 0x60, 0x8a, 0xbd, 0xc0, 0xcd, 0x1b, 0xbe, 0x9c, 0xf0, 0x85, 0x3e,
  0xc2, 0xbf, 0xb8, 0xbe, 0xaa, 0x57, 0x7a, 0xbe, 0x06, 0x7c, 0x3d, 0x3e,
  0x3d, 0x97, 0x41, 0x3e, 0xcc, 0xc2, 0x9c, 0x3d, 0xc7, 0xdd, 0x01, 0x3d,
  0xda, 0x17, 0xc3, 0xbe, 0x2a, 0x5a, 0x3c, 0x3c, 0x24, 0x91, 0x84, 0x3c,
  0xa9, 0xbc, 0x30, 0x3e, 0x64, 0x77, 0x8f, 0xbc, 0x87, 0xb5, 0x13, 0xbf,
  0xee, 0x73, 0xcd, 0x3e, 0xa2, 0x6e, 0x1a, 0xbf, 0x8b, 0xb0, 0xcd, 0x3e,
  0x78, 0x90, 0x8e, 0x3b, 0x25, 0x8c, 0x4a, 0x3c, 0x05, 0x37, 0x82, 0x3e,
  0x71, 0xa9, 0x04, 0x3e, 0x41, 0xd7, 0xd8, 0x3e, 0x2d, 0x30, 0x04, 0xbe,
  0x1f, 0xca, 0x30, 0x3c, 0x10, 0x8c, 0x4e, 0xbe, 0xb1, 0xa5, 0x5f, 0x3f,
  0x20, 0xd5, 0x73, 0xbe, 0xfa, 0x8e, 0x91, 0xbf, 0xf6, 0x18, 0x67, 0xbf,
  0x4f, 0x19, 0xca, 0xbc, 0x98, 0xeb, 0x0c, 0x3f, 0xb0, 0x76, 0x35, 0x3e,
  0x62, 0xdb, 0xbe, 0xbc, 0x76, 0x64, 0x0b, 0x3e, 0xf6, 0xe0, 0xf1, 0xbd,
  0x30, 0x0f, 0x28, 0xbe, 0xeb, 0x58, 0x9a, 0x3b, 0xa7, 0xb0, 0x11, 0xbe,
  0x1e, 0x4d, 0xb8, 0xbc, 0x96, 0x37, 0x05, 0xbe, 0x55, 0x4f, 0xae, 0x3e,
  0x68, 0x9b, 0x54, 0x3a, 0x51, 0x4b, 0x4f, 0xbe, 0x17, 0xbb, 0x00, 0xbd,
  0xc5, 0x6b, 0x85, 0xbf, 0xb7, 0x25, 0x50, 0x3d, 0x7b, 0xae, 0xae, 0xbc,
  0xb7, 0x61, 0xf0, 0xbd, 0x55, 0x40, 0x8e, 0xbf, 0xd7, 0x6c, 0xf0, 0xbc,
  0x70, 0xc2, 0x0b, 0xbe, 0x14, 0x82, 0x8d, 0x3f, 0x5e, 0xa8, 0x63, 0xbc,
  0x59, 0x4c, 0x04, 0xbb, 0x88, 0xa7, 0x80, 0x3d, 0x3a, 0x7f, 0x0f, 0xbf,
  0x3f, 0xa8, 0x32, 0x3e, 0xfe, 0x9c, 0x85, 0x3b, 0xf0, 0xde, 0x8e, 0x3f,
  0xb6, 0x97, 0xbd, 0x3e, 0x49, 0x35, 0x50, 0xbd, 0xf9, 0x12, 0xaf, 0xbd,
  0xb2, 0x9e, 0x71, 0xbe, 0xfc, 0x72, 0x98, 0xbf, 0x0d, 0xb6, 0x97, 0x3c,
  0x58, 0x7b, 0x9e, 0x39, 0x82, 0x9f, 0x3d, 0x3d, 0x7b, 0x93, 0xbd, 0xbc,
  0xe9, 0xae, 0xb3, 0x3f, 0xc9, 0x87, 0x3e, 0x3d, 0x3d, 0x3d, 0x1e, 0x3e,
  0xa2, 0xb2, 0x9d, 0xbc, 0x6e, 0x5f, 0x80, 0xbf, 0x44, 0x47, 0x33, 0x3d,
  0x7c, 0xa9, 0xb6, 0x3c, 0xdb, 0xaf, 0xb3, 0x3e, 0xb9, 0x57, 0x32, 0x3e,
  0xc1, 0x32, 0x75, 0xbe, 0x68, 0xbd, 0xaf, 0x3e, 0x48, 0x4a, 0x6e, 0xbe,
  0x71, 0x65, 0x0d, 0x3d, 0xb6, 0x7d, 0xeb, 0xba, 0xf8, 0x2d, 0xe1, 0x3c,
  0xbf, 0xf5, 0x10, 0xbd, 0x75, 0x17, 0xf4, 0x3d, 0xa6, 0x1b, 0xbf, 0xbe,
  0xf9, 0x49, 0x46, 0xbe, 0x44, 0x3f, 0x3f, 0x3d, 0xd5, 0xd7, 0x2c, 0xbe,
  0xeb, 0x57, 0x33, 0x3f, 0xdf, 0x99, 0xb5, 0xbf, 0xa6, 0xf0, 0x2d, 0xbe,
  0xc7, 0x99, 0x9a, 0xbe, 0x50, 0xe2, 0xf5, 0x3c, 0x64, 0xef, 0x98, 0x3e,
  0x20, 0xa6, 0x5c, 0xbe, 0x0e, 0xa1, 0x25, 0xbd, 0xf8, 0xa0, 0x7d, 0xbe,
  0xce, 0x5c, 0xb8, 0x3e, 0x1e, 0x60, 0x99, 0xbd, 0x8b, 0xd2, 0x5a, 0x3b,
  0xae, 0xcc, 0x62, 0xbf, 0x13, 0xe1, 0x74, 0x3c, 0xb7, 0xa5, 0x1d, 0x3c,
  0x2f, 0x15, 0x35, 0x3e, 0x3e, 0x08, 0xa9, 0xbc, 0xff, 0xfa, 0x5b, 0xbe,
  0x3f, 0x18, 0xe7, 0x3a, 0x6a, 0x17, 0x04, 0x3d, 0x0d, 0x1d, 0x97, 0xbe,
  0x57, 0xcc, 0x57, 0x3c, 0xa3, 0x4e, 0x57, 0xbe, 0x21, 0x93, 0x53, 0xbe,
  0x76, 0x17, 0xff, 0xbc, 0x4b, 0x23, 0x80, 0x3e, 0xe0, 0x85, 0x47, 0x3f,
  0x3e, 0x32, 0xd6, 0xbc, 0x5d, 0xa2, 0xaa, 0x3c, 0xfe, 0x96, 0x32, 0xbd,
  0xe1, 0xa8, 0x71, 0xbf, 0xfb, 0x98, 0x40, 0x3c, 0x16, 0x4e, 0x67, 0x3b,
  0xb0, 0x8d, 0x5c, 0x3f, 0x70, 0x57, 0x44, 0x3e, 0x5f, 0xa4, 0xa0, 0x3e,
  0xff, 0x6c, 0x93, 0xbe, 0x48, 0xea, 0x03, 0xbf, 0x09, 0x10, 0xcd, 0x3d,
  0x44, 0x78, 0x53, 0x3d, 0x46, 0x1a, 0xc0, 0x3d, 0x3d, 0xf2, 0xe6, 0x3e,
  0x7b, 0xb4, 0x69, 0xbc, 0xaf, 0x15, 0x86, 0x3f, 0x18, 0xfc, 0x90, 0xbe,
  0x6f, 0x6e, 0xb4, 0x3e, 0x0b, 0xc1, 0x24, 0x3e, 0x1a, 0x08, 0x57, 0x3e,
  0xad, 0x0e, 0x04, 0xbf, 0x81, 0x66, 0x25, 0xbf, 0x0d, 0xfd, 0x99, 0xbb,
  0x4c, 0x96, 0x3a, 0xbf, 0x59, 0xf4, 0x41, 0xbd, 0x5c, 0xce, 0xda, 0x3e,
  0x0f, 0x49, 0x12, 0xbf, 0x0f, 0x37, 0x24, 0x3e, 0x1d, 0x89, 0xde, 0xbd,
  0xc7, 0xea, 0x93, 0xbb, 0xe4, 0x6c, 0xcb, 0x3e, 0x8c, 0x0e, 0x32, 0x3d,
  0x8b, 0xd0, 0xb0, 0x3e, 0xde, 0xd5, 0x24, 0x3f, 0xda, 0x0a, 0x3c, 0xbe,
  0xe8, 0x74, 0x94, 0x3e, 0x72, 0x7d, 0x56, 0x3e, 0x51, 0xd2, 0x53, 0x3e,
  0xb5, 0xed, 0xe3, 0x3e, 0x3d, 0x8c, 0xf0, 0x3e, 0xae, 0x7d, 0xee, 0xbe,
  0x4b, 0x86, 0x29, 0x3f, 0x1e, 0x29, 0xd2, 0x3d, 0x4e, 0x0f, 0x45, 0xbc,
  0xcd, 0xcc, 0x14, 0x3e, 0x67, 0x77, 0xd8, 0xbd, 0x57, 0xbc, 0x15, 0x3e,
  0x8b, 0xfb, 0x8d, 0x3d, 0xaf, 0x67, 0x8e, 0x3e, 0x4e, 0x7d, 0x03, 0xbf,
  0xf4, 0xbe, 0x27, 0x3f, 0x9a, 0x4f, 0xbe, 0x3e, 0x1d, 0x99, 0x91, 0x3d,
  0xbc, 0x78, 0x93, 0xbe, 0xd6, 0x1e, 0x43, 0x3e, 0x44, 0xf0, 0xbb, 0x3e,
  0x72, 0x98, 0x80, 0x3e, 0x2a, 0x46, 0xff, 0x3d, 0x2d, 0xd7, 0x93, 0x3e,
  0x2a, 0xe1, 0xc4, 0x3e, 0xc8, 0x36, 0x98, 0x3e, 0x97, 0x8f, 0x3c, 0xbe,
  0xc2, 0x6a, 0xbb, 0x3e, 0xe5, 0x5a, 0xb4, 0x3a, 0x0e, 0xd0, 0x29, 0xbf,
  0x45, 0x09, 0x82, 0x3e, 0xc7, 0xd3, 0x1e, 0xbe, 0x4f, 0x64, 0xa7, 0xbc,
  0x50, 0x3b, 0x2b, 0x3d, 0xf7, 0xc3, 0x76, 0x3e, 0x20, 0x82, 0xc0, 0x3e,
  0xc3, 0xde, 0x86, 0xbe, 0x5f, 0xf2, 0x92, 0xbe, 0x22, 0x4d, 0x20, 0x3f,
  0x95, 0x20, 0xcb, 0x3e, 0x51, 0xd4, 0x31, 0x3d, 0x89, 0x75, 0x30, 0xbf,
  0x2e, 0xc1, 0x02, 0xbf, 0x14, 0x7d, 0x5a, 0x3e, 0x37, 0x40, 0xd7, 0x3e,
  0x33, 0xa7, 0x01, 0xbe, 0x66, 0xdb, 0x0c, 0xbf, 0x99, 0xef, 0xee, 0x3d,
  0x7d, 0x43, 0x02, 0xbf, 0x9c, 0xf2, 0x95, 0x3e, 0xe4, 0x0d, 0x3c, 0x3f,
  0x24, 0x14, 0x7b, 0xbf, 0x76, 0x5a, 0x71, 0x3f, 0x62, 0xd1, 0x27, 0xbc,
  0xac, 0xac, 0x5a, 0xbf, 0x05, 0xd3, 0x65, 0xbf, 0x54, 0x03, 0x07, 0x3b,
  0xc2, 0x61, 0x0d, 0x3e, 0x59, 0x6c, 0x98, 0x3c, 0x58, 0xf1, 0x4a, 0x3f,
  0xfb, 0xee, 0x36, 0xbf, 0x72, 0xa8, 0xec, 0xbd, 0xe8, 0xb7, 0x2a, 0xbe,
  0x4a, 0x7d, 0xa9, 0x3e, 0x0c, 0xbb, 0x19, 0x3d, 0x47, 0x87, 0x4b, 0x3d,
  0x98, 0xf8, 0xac, 0xbe, 0xc7, 0x66, 0xbf, 0x3c, 0xe4, 0xf9, 0x99, 0x3d,
  0xcd, 0x7d, 0x57, 0x3e, 0xf0, 0x08, 0x4a, 0x3f, 0xae, 0xb9, 0xd4, 0xbc,
  0xda, 0x7f, 0xf1, 0xbc, 0x71, 0x56, 0xd3, 0xbd, 0xd4, 0x57, 0x87, 0x3d,
  0x7e, 0xe6, 0x59, 0x3d, 0xc6, 0x91, 0x0d, 0x3e, 0xec, 0x4f, 0xb6, 0xbe,
  0x82, 0xed, 0xf1, 0x3d, 0x27, 0xb8, 0xb9, 0x3c, 0xde, 0xcc, 0x96, 0xbe,
  0xe2, 0x74, 0x8f, 0xbd, 0x9b, 0xa5, 0x2a, 0xbf, 0x44, 0x6b, 0x24, 0x3e,
  0x2f, 0xde, 0x58, 0x3c, 0x21, 0x8c, 0x8e, 0xbe, 0x05, 0x90, 0x4c, 0x3e,
  0x4e, 0x48, 0x78, 0xbc, 0xac, 0x55, 0xdd, 0x3c, 0x95, 0xa1, 0x0c, 0x3e,
  0x69, 0xc2, 0x22, 0xbf, 0x62, 0xd9, 0xe4, 0x3c, 0x6e, 0x8d, 0xf8, 0x3d,
  0xb8, 0xa4, 0x80, 0x3e, 0xf9, 0x65, 0x5a, 0x3e, 0x13, 0x40, 0x55, 0x3d,
  0xe4, 0xd3, 0x26, 0xbe, 0x6f, 0xc0, 0x0b, 0x3e, 0x75, 0x5d, 0x25, 0x3d,
  0x6f, 0x3b, 0x2e, 0xbf, 0xaf, 0xa4, 0x51, 0xbe, 0x7c, 0x21, 0x17, 0x3e,
  0x07, 0xda, 0x89, 0xbe, 0x5f, 0x48, 0x29, 0xbb, 0x11, 0xe2, 0x63, 0x3e,
  0x7b, 0xea, 0x7e, 0x3e, 0x37, 0xf3, 0x9c, 0x3f, 0x86, 0x34, 0xbc, 0x3c,
  0x40, 0xd4, 0xd6, 0x3a, 0x26, 0xa3, 0x11, 0x3e, 0xdf, 0x0a, 0x90, 0x3f,
  0xab, 0xde, 0x4f, 0x3d, 0xed, 0x84, 0xfa, 0x3d, 0xd5, 0x15, 0x8e, 0x3d,
  0x94, 0x36, 0x02, 0x3d, 0x8a, 0xd3, 0x72, 0xba, 0xd6, 0x49, 0xd4, 0x3d,
  0xf7, 0xe4, 0xba, 0xbf, 0xc4, 0x28, 0xcc, 0x3d, 0x2c, 0x9c, 0xf7, 0xbd,
  0x05, 0x88, 0x5a, 0x3d, 0x87, 0xe3, 0x41, 0x3e, 0x2d, 0xc6, 0xac, 0x3d,
  0xce, 0x7b, 0xe1, 0x3e, 0x24, 0x82, 0xa2, 0xbc, 0x5d, 0x97, 0x38, 0x3d,
  0x62, 0x82, 0xa9, 0x3e, 0x7a, 0x7a, 0x53, 0x3e, 0x2c, 0xa2, 0xbc, 0xbf,
  0xc1, 0xa6, 0x9e, 0xbe, 0xf4, 0x15, 0xff, 0x3c, 0x55, 0x89, 0xbe, 0xbe,
  0x60, 0x49, 0x95, 0x3d, 0x0f, 0xbf, 0xab, 0x3e, 0x59, 0x43, 0xce, 0x3e,
  0x5f, 0xfc, 0xcc, 0x3d, 0x6e, 0xd1, 0x87, 0x3f, 0x40, 0x9a, 0x67, 0x3d,
  0x87, 0xa6, 0xce, 0xbf, 0xd6, 0x99, 0x71, 0xbf, 0x09, 0x78, 0x17, 0x3e,
  0xf2, 0xfa, 0x73, 0xbc, 0x84, 0xe4, 0x90, 0xbd, 0x3b, 0x65, 0x84, 0xbd,
  0x3b, 0x2d, 0xfd, 0x3d, 0x43, 0x1c, 0xaf, 0x3e, 0xb8, 0x2a, 0x92, 0xbe,
  0x5a, 0xf1, 0x6c, 0x3f, 0x38, 0xfb, 0x3b, 0xbe, 0x15, 0xd9, 0x75, 0x3e,
  0xe1, 0x49, 0x6e, 0x3f, 0x63, 0xa6, 0x75, 0xbf, 0x67, 0x43, 0x82, 0x3c,
  0xa1, 0xd8, 0x24, 0x3f, 0xb1, 0x41, 0x45, 0xbe, 0xd1, 0xf9, 0xa0, 0xbe,
  0x69, 0x17, 0xab, 0x3f, 0xeb, 0xf1, 0x95, 0x3e, 0xe5, 0x98, 0x7c, 0x3e,
  0x5f, 0xe3, 0xe0, 0xbd, 0xb4, 0x27, 0xbb, 0xbc, 0xdd, 0xb7, 0x3c, 0x3e,
  0xc7, 0x5e, 0xf1, 0xbe, 0x5e, 0xa8, 0xcc, 0xbb, 0x91, 0x6c, 0xc8, 0xbd,
  0xbb, 0xed, 0x36, 0xbe, 0xb5, 0x13, 0x7e, 0x3e, 0x12, 0xf8, 0x20, 0xbd,
  0x9b, 0x99, 0xa5, 0x3e, 0x34, 0xa7, 0xcd, 0xbb, 0xd2, 0x16, 0xc8, 0xbd,
  0x37, 0x7a, 0x91, 0x3f, 0x65, 0xec, 0xc1, 0xbe, 0xec, 0xf9, 0x8d, 0xbe,
  0x48, 0xbd, 0x8b, 0x3e, 0x4c, 0xae, 0x52, 0x3d, 0x49, 0xba, 0xb0, 0xbd,
  0xc5, 0x1d, 0x12, 0x3f, 0x9b, 0xbb, 0x28, 0x3f, 0x7d, 0xa0, 0xd3, 0xbe,
  0x38, 0x5f, 0x04, 0x3e, 0x8a, 0x77, 0x3c, 0x3e, 0x4c, 0x60, 0xdf, 0xbe,
  0x00, 0xfe, 0x46, 0x3f, 0x18, 0x3a, 0xa2, 0xbe, 0x3c, 0x5e, 0xe1, 0x3d,
  0xaa, 0x2e, 0x05, 0x3d, 0x53, 0xd1, 0xcd, 0xbe, 0x0a, 0xa4, 0xee, 0xbe,
  0xf5, 0x30, 0x0d, 0xbf, 0x3f, 0xdf, 0xad, 0xbe, 0x5a, 0xf2, 0x54, 0x3e,
  0xcb, 0x2b, 0x41, 0xbe, 0x80, 0x9d, 0x3c, 0x3e, 0xcc, 0x53, 0xd3, 0xbe,
  0x67, 0x8e, 0xa2, 0xbd, 0xd1, 0x85, 0xd2, 0xbe, 0xff, 0x81, 0x99, 0x3e,
  0xe3, 0xb6, 0xed, 0xbe, 0xe3, 0xe5, 0xfc, 0xbe, 0x1b, 0x9f, 0x85, 0x3e,
  0xba, 0xae, 0xb3, 0xbe, 0xfb, 0x51, 0xf9, 0x3c, 0xa9, 0x41, 0xd6, 0xbe,
  0x90, 0x3a, 0x81, 0xbc, 0x2a, 0x4c, 0x81, 0xbd, 0x50, 0xfd, 0x17, 0x3f,
  0xf0, 0x55, 0x48, 0xbe, 0xe6, 0xdd, 0x83, 0xbe, 0xe6, 0x26, 0xf6, 0x3c,
  0xd8, 0x89, 0x23, 0x3f, 0xed, 0xa2, 0x41, 0x3c, 0x3a, 0x59, 0x53, 0x3e,
  0xde, 0x04, 0x5d, 0xbe, 0x4f, 0xba, 0xdc, 0x3d, 0x14, 0x10, 0x1b, 0xbe,
  0xa2, 0xa0, 0x96, 0xbd, 0x87, 0xfe, 0x56, 0x3e, 0xe2, 0xee, 0x2e, 0xbd,
  0x62, 0xe5, 0xa8, 0xbd, 0xc5, 0xc3, 0xf0, 0x3d, 0x13, 0x23, 0xec, 0x3e,
  0x02, 0x71, 0x52, 0x3d, 0x52, 0xe2, 0x17, 0xbe, 0x38, 0x37, 0xf2, 0xbe,
  0x5a, 0xc7, 0x4a, 0x3e, 0x1d, 0xe4, 0x10, 0x3e, 0x74, 0xd1, 0x11, 0xbf,
  0x02, 0x34, 0x69, 0xbb, 0xa3, 0xce, 0x00, 0xbe, 0x7b, 0xb6, 0x35, 0xbe,
  0xe7, 0x55, 0xa0, 0xbe, 0xe5, 0x4d, 0x24, 0x3e, 0x89, 0x01, 0x35, 0x3f,
  0x9e, 0xef, 0x8c, 0xbd, 0xb9, 0xb8, 0xcf, 0x3c, 0x3e, 0x9e, 0x02, 0x3d,
  0x48, 0x90, 0x25, 0xbf, 0x60, 0x79, 0x09, 0x3e, 0x72, 0xbb, 0x87, 0x3b,
  0xff, 0x83, 0x62, 0xbf, 0x98, 0xb4, 0x14, 0x3d, 0x93, 0x64, 0x6c, 0xbb,
  0x37, 0xcf, 0x88, 0xbe, 0x07, 0xcd, 0x51, 0x3e, 0x2a, 0xff, 0xb1, 0xbe,
  0x95, 0x7b, 0xd5, 0xbd, 0x5d, 0x8b, 0x9e, 0xbf, 0x64, 0x7c, 0xdc, 0xbe,
  0x6d, 0x8c, 0x47, 0x3c, 0x22, 0x55, 0x2a, 0x3d, 0x83, 0x40, 0x27, 0xbd,
  0x47, 0x50, 0xcc, 0xbd, 0x05, 0xd0, 0x7f, 0xbe, 0x4d, 0xc9, 0x43, 0xbe,
  0x1b, 0x31, 0x8e, 0x3d, 0x6a, 0xa5, 0xbc, 0x3e, 0xa5, 0x1b, 0x12, 0x3f,
  0xf4, 0xb0, 0x9e, 0xbf, 0x99, 0xfb, 0xa0, 0x3d, 0xe8, 0xfb, 0x8a, 0x3e,
  0xd7, 0x98, 0x6a, 0xbd, 0x79, 0xa5, 0x15, 0x3e, 0x97, 0x2d, 0x28, 0xbe,
  0xfb, 0xcf, 0x01, 0x3d, 0x52, 0x31, 0x71, 0xbe, 0xe1, 0xfc, 0xc6, 0x3d,
  0x1e, 0x2d, 0xc7, 0x3e, 0xc7, 0xc7, 0x05, 0x3d, 0xa7, 0xe0, 0xa5, 0xbf,
  0x48, 0x57, 0xbc, 0x3c, 0x5e, 0x82, 0x9c, 0x3e, 0xdb, 0xaa, 0x08, 0x3c,
  0xf7, 0x3c, 0x7f, 0x3d, 0x53, 0x8c, 0x40, 0xbf, 0xee, 0xb1, 0xae, 0x3d,
  0x22, 0xe5, 0x83, 0xbe, 0x24, 0x1e, 0xff, 0xbe, 0xdc, 0xe1, 0x7e, 0x3c,
  0x4b, 0x7c, 0xab, 0x3e, 0x46, 0x26, 0x4a, 0x3e, 0x82, 0x39, 0x33, 0x3d,
  0xbd, 0xee, 0x92, 0xbd, 0x9d, 0x53, 0x3a, 0x3f, 0x35, 0x47, 0x88, 0x3c,
  0xc4, 0x4e, 0x80, 0x3b, 0x0a, 0x75, 0x84, 0x3d, 0x6f, 0xb9, 0x03, 0xbf,
  0x94, 0x11, 0x54, 0xbe, 0x2f, 0x76, 0x93, 0x3c, 0xb4, 0xd6, 0x03, 0x3f,
  0xc5, 0x21, 0x69, 0xbe, 0xbc, 0xfe, 0x3b, 0x3e, 0x45, 0x6d, 0x7a, 0x3e,
  0x3a, 0xef, 0x36, 0xbf, 0x1a, 0x3f, 0x9f, 0x3d, 0xdc, 0xf7, 0x9c, 0x3b,
  0x3d, 0x78, 0xec, 0x3a, 0x41, 0x82, 0x2e, 0x3f, 0x0b, 0x0c, 0x98, 0x3d,
  0x34, 0x4b, 0x41, 0x3f, 0x39, 0x7c, 0x02, 0x3f, 0x15, 0xc9, 0xcc, 0x3e,
  0xde, 0xfa, 0xff, 0xff, 0x04, 0x00, 0x00, 0x00, 0x80, 0x04, 0x00, 0x00,
  0x89, 0x1c, 0xcb, 0x3d, 0xcb, 0xc1, 0x51, 0x3e, 0xa6, 0x15, 0x38, 0xbe,
  0x9d, 0x2b, 0xfb, 0x3d, 0xbc, 0x9a, 0x0e, 0xbf, 0x68, 0xfe, 0x46, 0xbe,
  0x3f, 0xd7, 0xe4, 0x3e, 0x05, 0xd4, 0xf6, 0xbe, 0x8c, 0x39, 0x8b, 0xbf,
  0x99, 0xd4, 0xe5, 0x3e, 0x3e, 0x06, 0xf5, 0x3d, 0x54, 0x53, 0xcc, 0x3d,
  0x09, 0xcb, 0xc0, 0x3e, 0xa3, 0x37, 0xc3, 0xbe, 0xf3, 0x36, 0x67, 0xbf,
  0xd1, 0x74, 0x2d, 0xbf, 0x4d, 0x44, 0x56, 0x3e, 0xde, 0x7c, 0x45, 0xbf,
  0xd0, 0x5e, 0x5c, 0x3f, 0x62, 0x83, 0x54, 0x3e, 0xee, 0x25, 0x60, 0xbf,
  0x32, 0x3d, 0x74, 0x3e, 0x6f, 0xd6, 0xb4, 0x3e, 0xbf, 0xf4, 0x2e, 0xbf,
  0x1e, 0x70, 0x8a, 0x3e, 0x44, 0x97, 0x19, 0xbe, 0x2d, 0x16, 0xc6, 0x3d,
  0x7b, 0x2c, 0x3b, 0x3e, 0x5d, 0x8a, 0x31, 0xbf, 0x93, 0xce, 0xb8, 0xbd,
  0x06, 0x45, 0xea, 0xbe, 0x58, 0x14, 0xc4, 0x3e, 0x48, 0xd5, 0xaf, 0xbe,
  0xc5, 0x25, 0xbc, 0xbf, 0xf0, 0x4e, 0xaa, 0x3f, 0xa1, 0xb1, 0x4b, 0x3e,
  0x37, 0x13, 0xf8, 0x3e, 0xf0, 0xa9, 0xaa, 0xbb, 0x07, 0xf2, 0xa7, 0xbd,
  0x5b, 0xcb, 0xcb, 0x3e, 0xbd, 0xfb, 0x5e, 0xbe, 0x17, 0x0b, 0xb8, 0x3d,
  0xb0, 0xd1, 0x27, 0xbf, 0x28, 0x3c, 0xbb, 0x3e, 0x7a, 0x22, 0x4b, 0xbf,
  0x8e, 0x66, 0x81, 0x3a, 0xc7, 0x2b, 0xc7, 0x3e, 0xb1, 0x3f, 0x07, 0xbd,
  0x87, 0xf5, 0x07, 0x3f, 0xc9, 0xeb, 0x26, 0x3f, 0x0f, 0xcc, 0xc5, 0x3d,
  0x38, 0x9b, 0x33, 0xbf, 0x25, 0xda, 0xa2, 0x3e, 0x22, 0x7e, 0xf1, 0xbe,
  0x10, 0xda, 0xb7, 0xbe, 0xea, 0x6d, 0x3f, 0xbe, 0xbb, 0xb3, 0xa2, 0xbe,
  0x08, 0x6d, 0xb7, 0xbf, 0xdf, 0xbe, 0x99, 0xbf, 0xa5, 0xb9, 0x2e, 0xbf,
  0x74, 0x09, 0xd0, 0x3d, 0xec, 0x5a, 0xae, 0x3e, 0x6c, 0xf1, 0x77, 0x3e,
  0x0c, 0xae, 0x46, 0xbf, 0xb6, 0xe8, 0x51, 0xbf, 0x02, 0x81, 0xad, 0x3e,
  0x97, 0xf7, 0x91, 0xbf, 0xba, 0x7a, 0x03, 0xbf, 0x35, 0xec, 0xf9, 0x3e,
  0x74, 0xfb, 0xe6, 0xbe, 0x66, 0xea, 0xa3, 0xbd, 0x86, 0xaf, 0xcc, 0x3e,
  0x8f, 0x85, 0x15, 0xbf, 0x88, 0xda, 0xa2, 0xbf, 0x9f, 0x34, 0xbe, 0xbe,
  0xdc, 0xde, 0xfb, 0xbc, 0x2f, 0x67, 0x09, 0xbf, 0x22, 0x6a, 0x36, 0x3e,
  0x74, 0xfc, 0xc0, 0xbd, 0x6c, 0x19, 0x0a, 0x3e, 0x15, 0x36, 0x11, 0xbf,
  0x37, 0xa7, 0x71, 0xbf, 0x4d, 0x96, 0x81, 0x3e, 0xdb, 0x75, 0x11, 0xbf,
  0xb5, 0x6b, 0x9d, 0x3e, 0xe2, 0x3a, 0x38, 0xbf, 0x76, 0xde, 0x34, 0xbf,
  0xa3, 0xc3, 0xa3, 0x3d, 0x41, 0x82, 0x4c, 0xbf, 0xae, 0x16, 0x2a, 0x3f,
  0x1e, 0xb5, 0xbf, 0x3e, 0x06, 0xf0, 0x07, 0xbf, 0x0d, 0xc3, 0x0b, 0x3e,
  0xce, 0x08, 0xab, 0x3e, 0xad, 0xfd, 0x7b, 0x3e, 0xd4, 0x31, 0x29, 0x3f,
  0xa4, 0xc0, 0x73, 0x3f, 0x31, 0x00, 0x81, 0xbf, 0x98, 0x0e, 0x86, 0xbd,
  0xb5, 0x92, 0xbe, 0x3e, 0xea, 0x33, 0x47, 0xbe, 0xd7, 0xf6, 0x1e, 0xbf,
  0xb4, 0x10, 0xb2, 0x3e, 0xb5, 0xea, 0x85, 0xbf, 0x40, 0x35, 0xfa, 0xbe,
  0x89, 0xc8, 0xde, 0x3e, 0x1c, 0x57, 0x90, 0x3e, 0xa7, 0x4f, 0xdb, 0x3e,
  0x54, 0x9e, 0x00, 0x3f, 0x68, 0x93, 0x05, 0xbf, 0x64, 0x60, 0x6a, 0x3e,
  0xcd, 0x19, 0xd3, 0x3e, 0x30, 0x6e, 0x40, 0xbf, 0xe2, 0x8b, 0x59, 0xbf,
  0x11, 0x3e, 0x83, 0x3f, 0xce, 0xa0, 0xbc, 0x3e, 0x2e, 0x1b, 0x97, 0xbf,
  0x85, 0x7b, 0x99, 0x3e, 0x9f, 0x5f, 0x16, 0x3e, 0x13, 0x82, 0x91, 0x3d,
  0x19, 0xc9, 0x43, 0xbf, 0x06, 0x1b, 0x4b, 0xbf, 0x79, 0xa2, 0x61, 0xbf,
  0x2b, 0xc3, 0x4a, 0x3d, 0xeb, 0x48, 0xad, 0xbd, 0x0a, 0xb7, 0x7f, 0xbf,
  0xe1, 0x7d, 0xe9, 0xbd, 0x8c, 0x9a, 0x7d, 0xbf, 0x37, 0x3a, 0xc0, 0xbf,
  0xec, 0xec, 0x47, 0xbf, 0x0f, 0xd3, 0x35, 0xbe, 0x4c, 0xd5, 0xc0, 0x3e,
  0xd6, 0x96, 0x27, 0xbd, 0xb5, 0x92, 0x7f, 0x3e, 0x98, 0x98, 0x70, 0x3e,
  0xf6, 0xee, 0x83, 0xbf, 0xce, 0x8a, 0xce, 0xbe, 0x9f, 0x5a, 0xd7, 0x3e,
  0x9d, 0x1d, 0x28, 0x3e, 0x78, 0xc0, 0xcf, 0x3e, 0x28, 0x21, 0xfb, 0x3e,
  0x0b, 0xca, 0x65, 0xbf, 0x8e, 0xe7, 0x83, 0x3e, 0x3a, 0xb0, 0x0b, 0x3f,
  0x33, 0x31, 0x8d, 0xbe, 0x09, 0x94, 0xa6, 0x3e, 0x00, 0xa1, 0x8e, 0xbf,
  0x4d, 0xd2, 0xc2, 0x3e, 0x29, 0x82, 0xb0, 0xbd, 0xf6, 0x58, 0x93, 0x3e,
  0xcd, 0xbe, 0xec, 0xbf, 0xb9, 0x6d, 0x52, 0x3e, 0xd3, 0x08, 0x5b, 0xbf,
  0xdc, 0xa2, 0x01, 0xbe, 0x4b, 0x93, 0x4a, 0xbe, 0x5b, 0x3e, 0x2e, 0x3d,
  0x74, 0x87, 0xcc, 0xbe, 0xcc, 0x2d, 0x92, 0xbf, 0xba, 0x02, 0xc4, 0xbe,
  0xf2, 0x44, 0xc2, 0xbe, 0x91, 0x1c, 0x6f, 0xbf, 0x50, 0x57, 0x2c, 0xbf,
  0xd3, 0x06, 0x7d, 0xbe, 0x05, 0xaa, 0xc8, 0x3e, 0x82, 0xb5, 0x8c, 0xbf,
  0x7a, 0x99, 0xdb, 0x3e, 0xfa, 0x9a, 0xdd, 0xbf, 0x96, 0x31, 0x0b, 0x3f,
  0xfd, 0x8a, 0x9c, 0x3e, 0x0f, 0x58, 0xb9, 0x3e, 0x56, 0x01, 0xdd, 0xbf,
  0x8d, 0xb7, 0xcb, 0x3e, 0x83, 0x25, 0xe4, 0x3e, 0x32, 0xe6, 0x98, 0xbf,
  0xaf, 0xf2, 0x14, 0x3e, 0x30, 0x56, 0xa8, 0xbf, 0x3a, 0x00, 0xea, 0xbe,
  0xa2, 0x19, 0x0e, 0x3f, 0xcb, 0xb4, 0x61, 0xbf, 0x42, 0xb0, 0x98, 0x3e,
  0x89, 0x0d, 0x25, 0x3e, 0xf8, 0x4f, 0xf5, 0x3d, 0xf6, 0x7a, 0x1a, 0xbf,
  0xbd, 0xe3, 0xb4, 0x3e, 0x34, 0xf0, 0xe5, 0xbe, 0x53, 0x0f, 0x74, 0x3c,
  0x55, 0xa9, 0xd9, 0xbe, 0xd8, 0x18, 0x61, 0x3e, 0x8d, 0xe0, 0x32, 0xbf,
  0x6c, 0xd7, 0x73, 0x3e, 0x08, 0x0b, 0x2f, 0xbf, 0x18, 0x4b, 0x92, 0xbe,
  0x22, 0xa7, 0xd8, 0xbe, 0x2b, 0x0f, 0x65, 0xbf, 0xf9, 0xdd, 0x60, 0xbe,
  0x0f, 0x31, 0xd0, 0x3e, 0xc5, 0xd6, 0x92, 0x3d, 0x16, 0xe4, 0x0d, 0x3f,
  0x31, 0xda, 0x13, 0xbf, 0xe8, 0xcd, 0x0a, 0xbf, 0x50, 0xd6, 0x0b, 0x3f,
  0x14, 0x85, 0xa2, 0xbf, 0x6d, 0x60, 0x13, 0xbf, 0x12, 0x7d, 0x3c, 0xbf,
  0xfb, 0x80, 0x64, 0xbf, 0xd4, 0xbc, 0x2c, 0x3f, 0x8c, 0xd0, 0x87, 0xbe,
  0x06, 0x9c, 0xfe, 0xbe, 0x68, 0xed, 0x05, 0xbf, 0xb8, 0x46, 0xc3, 0x3c,
  0x8a, 0x7a, 0x32, 0xbd, 0x4c, 0xa6, 0x69, 0xbf, 0x77, 0xec, 0x7f, 0x3e,
  0x8d, 0x63, 0xa4, 0xbf, 0x37, 0xb3, 0xcc, 0xbd, 0x34, 0x37, 0x00, 0x3f,
  0x3c, 0x33, 0xfe, 0xbe, 0xb9, 0xcf, 0x0c, 0x3f, 0x10, 0x8d, 0x63, 0xbf,
  0x34, 0x4d, 0xc1, 0x3e, 0x28, 0xd6, 0x7a, 0xbf, 0x56, 0x2f, 0xa6, 0x3e,
  0x09, 0x9d, 0x49, 0xbf, 0xfb, 0xd1, 0x37, 0xbf, 0x67, 0x6d, 0x64, 0x3e,
  0x6f, 0x74, 0x6b, 0x3e, 0x1d, 0x78, 0x9d, 0xbe, 0xf6, 0xff, 0xb0, 0xbf,
  0xdb, 0xb6, 0x95, 0xbe, 0xfd, 0x0d, 0x14, 0xbf, 0x3f, 0x75, 0xe9, 0x3e,
  0x28, 0x0a, 0x27, 0xbf, 0x36, 0xa5, 0x16, 0x3f, 0xb8, 0xb4, 0xd7, 0x3e,
  0x61, 0xaf, 0x1e, 0x3e, 0x1d, 0x7f, 0xaf, 0xbf, 0xf2, 0xa6, 0x43, 0xbf,
  0xf6, 0xee, 0xc4, 0xbc, 0xe9, 0xcd, 0x3f, 0xbf, 0xe1, 0x52, 0xf0, 0xbe,
  0xb1, 0xdd, 0x8d, 0x3e, 0x09, 0x3d, 0x04, 0xbe, 0x67, 0x41, 0x26, 0xbe,
  0x51, 0x0b, 0xa4, 0xbf, 0x28, 0xf0, 0xe5, 0xbe, 0x27, 0x66, 0x63, 0x3e,
  0xc2, 0x3c, 0xbe, 0x3e, 0xa5, 0x30, 0xc0, 0x3d, 0x25, 0xd8, 0xa5, 0x3e,
  0x90, 0x24, 0x0d, 0xbd, 0x65, 0x2e, 0x20, 0x3e, 0x7a, 0x69, 0x2d, 0x3e,
  0x70, 0x69, 0x3a, 0x3f, 0x91, 0xa8, 0xdd, 0xbe, 0xe2, 0x08, 0xd8, 0xbe,
  0x0d, 0xde, 0xd1, 0x3e, 0x4e, 0x91, 0x1a, 0x3e, 0x2a, 0xcd, 0xc4, 0xbc,
  0x6a, 0x4d, 0x9e, 0xbe, 0x2d, 0xcc, 0x3e, 0xbf, 0x94, 0x88, 0xeb, 0xbe,
  0x15, 0x72, 0x1c, 0xbf, 0xa6, 0x58, 0x91, 0xbe, 0xd1, 0x90, 0xbf, 0xbe,
  0x8c, 0xbb, 0x53, 0xbf, 0x8a, 0x0c, 0xbb, 0x3e, 0xa1, 0xe0, 0x60, 0xbf,
  0x80, 0xd9, 0x25, 0x3f, 0xee, 0x49, 0xef, 0xbe, 0xe5, 0xc8, 0xf8, 0x3e,
  0xb2, 0x1a, 0x47, 0x3f, 0x5b, 0x46, 0x68, 0x3f, 0x69, 0x1b, 0xd9, 0x3e,
  0xfa, 0x54, 0x4d, 0xbf, 0xc6, 0x64, 0xf0, 0xbe, 0x66, 0x5f, 0x84, 0xbe,
  0xf7, 0x11, 0x39, 0xbe, 0x2d, 0xd2, 0x42, 0xbf, 0x80, 0xdd, 0xc0, 0x3e,
  0x6b, 0xdb, 0x7a, 0xbf, 0xc2, 0xba, 0xed, 0x3e, 0xf9, 0x8e, 0x8b, 0x3d,
  0x90, 0xd4, 0x15, 0x3f, 0x3b, 0x5b, 0x26, 0xbf, 0x2c, 0xa3, 0x34, 0xbe,
  0x26, 0xdd, 0x5f, 0xbf, 0xde, 0x52, 0x9c, 0x3e, 0xd0, 0xf9, 0x16, 0xbe,
  0x64, 0xfa, 0xff, 0xff, 0x68, 0xfa, 0xff, 0xff, 0x0f, 0x00, 0x00, 0x00,
  0x4d, 0x4c, 0x49, 0x52, 0x20, 0x43, 0x6f, 0x6e, 0x76, 0x65, 0x72, 0x74,
  0x65, 0x64, 0x2e, 0x00, 0x01, 0x00, 0x00, 0x00, 0x14, 0x00, 0x00, 0x00,
  0x00, 0x00, 0x0e, 0x00, 0x18, 0x00, 0x14, 0x00, 0x10, 0x00, 0x0c, 0x00,
  0x08, 0x00, 0x04, 0x00, 0x0e, 0x00, 0x00, 0x00, 0x14, 0x00, 0x00, 0x00,
  0x1c, 0x00, 0x00, 0x00, 0x24, 0x01, 0x00, 0x00, 0x28, 0x01, 0x00, 0x00,
  0x2c, 0x01, 0x00, 0x00, 0x04, 0x00, 0x00, 0x00, 0x6d, 0x61, 0x69, 0x6e,
  0x00, 0x00, 0x00, 0x00, 0x04, 0x00, 0x00, 0x00, 0xcc, 0x00, 0x00, 0x00,
  0x84, 0x00, 0x00, 0x00, 0x50, 0x00, 0x00, 0x00, 0x14, 0x00, 0x00, 0x00,
  0x00, 0x00, 0x0e, 0x00, 0x1a, 0x00, 0x14, 0x00, 0x10, 0x00, 0x0c, 0x00,
  0x0b, 0x00, 0x04, 0x00, 0x0e, 0x00, 0x00, 0x00, 0x1c, 0x00, 0x00, 0x00,
  0x00, 0x00, 0x00, 0x09, 0x1c, 0x00, 0x00, 0x00, 0x20, 0x00, 0x00, 0x00,
  0x01, 0x00, 0x00, 0x00, 0x00, 0x00, 0x06, 0x00, 0x08, 0x00, 0x04, 0x00,
  0x06, 0x00, 0x00, 0x00, 0x00, 0x00, 0x80, 0x3f, 0x01, 0x00, 0x00, 0x00,
  0x0a, 0x00, 0x00, 0x00, 0x01, 0x00, 0x00, 0x00, 0x09, 0x00, 0x00, 0x00,
  0x9a, 0xff, 0xff, 0xff, 0x10, 0x00, 0x00, 0x00, 0x00, 0x00, 0x00, 0x08,
  0x0c, 0x00, 0x00, 0x00, 0x10, 0x00, 0x00, 0x00, 0x2c, 0xfb, 0xff, 0xff,
  0x01, 0x00, 0x00, 0x00, 0x09, 0x00, 0x00, 0x00, 0x03, 0x00, 0x00, 0x00,
  0x08, 0x00, 0x00, 0x00, 0x01, 0x00, 0x00, 0x00, 0x03, 0x00, 0x00, 0x00,
  0xca, 0xff, 0xff, 0xff, 0x10, 0x00, 0x00, 0x00, 0x00, 0x00, 0x00, 0x08,
  0x10, 0x00, 0x00, 0x00, 0x14, 0x00, 0x00, 0x00, 0xba, 0xff, 0xff, 0xff,
  0x00, 0x00, 0x00, 0x01, 0x01, 0x00, 0x00, 0x00, 0x08, 0x00, 0x00, 0x00,
  0x03, 0x00, 0x00, 0x00, 0x07, 0x00, 0x00, 0x00, 0x02, 0x00, 0x00, 0x00,
  0x04, 0x00, 0x00, 0x00, 0x00, 0x00, 0x0e, 0x00, 0x16, 0x00, 0x00, 0x00,
  0x10, 0x00, 0x0c, 0x00, 0x0b, 0x00, 0x04, 0x00, 0x0e, 0x00, 0x00, 0x00,
  0x18, 0x00, 0x00, 0x00, 0x00, 0x00, 0x00, 0x08, 0x18, 0x00, 0x00, 0x00,
  0x1c, 0x00, 0x00, 0x00, 0x00, 0x00, 0x06, 0x00, 0x08, 0x00, 0x07, 0x00,
  0x06, 0x00, 0x00, 0x00, 0x00, 0x00, 0x00, 0x01, 0x01, 0x00, 0x00, 0x00,
  0x07, 0x00, 0x00, 0x00, 0x03, 0x00, 0x00, 0x00, 0x00, 0x00, 0x00, 0x00,
  0x06, 0x00, 0x00, 0x00, 0x05, 0x00, 0x00, 0x00, 0x01, 0x00, 0x00, 0x00,
  0x0a, 0x00, 0x00, 0x00, 0x01, 0x00, 0x00, 0x00, 0x00, 0x00, 0x00, 0x00,
  0x0b, 0x00, 0x00, 0x00, 0xfc, 0x03, 0x00, 0x00, 0xa4, 0x03, 0x00, 0x00,
  0x4c, 0x03, 0x00, 0x00, 0x10, 0x03, 0x00, 0x00, 0xb4, 0x02, 0x00, 0x00,
  0x5c, 0x02, 0x00, 0x00, 0x10, 0x02, 0x00, 0x00, 0x7c, 0x01, 0x00, 0x00,
  0xe0, 0x00, 0x00, 0x00, 0x60, 0x00, 0x00, 0x00, 0x04, 0x00, 0x00, 0x00,
  0x46, 0xfc, 0xff, 0xff, 0x00, 0x00, 0x00, 0x01, 0x14, 0x00, 0x00, 0x00,
  0x1c, 0x00, 0x00, 0x00, 0x1c, 0x00, 0x00, 0x00, 0x0b, 0x00, 0x00, 0x00,
  0x34, 0x00, 0x00, 0x00, 0x02, 0x00, 0x00, 0x00, 0xff, 0xff, 0xff, 0xff,
  0x09, 0x00, 0x00, 0x00, 0x30, 0xfc, 0xff, 0xff, 0x1b, 0x00, 0x00, 0x00,
  0x53, 0x74, 0x61, 0x74, 0x65, 0x66, 0x75, 0x6c, 0x50, 0x61, 0x72, 0x74,
  0x69, 0x74, 0x69, 0x6f, 0x6e, 0x65, 0x64, 0x43, 0x61, 0x6c, 0x6c, 0x5f,
  0x31, 0x3a, 0x30, 0x00, 0x02, 0x00, 0x00, 0x00, 0x01, 0x00, 0x00, 0x00,
  0x09, 0x00, 0x00, 0x00, 0x9e, 0xfc, 0xff, 0xff, 0x00, 0x00, 0x00, 0x01,
  0x14, 0x00, 0x00, 0x00, 0x1c, 0x00, 0x00, 0x00, 0x1c, 0x00, 0x00, 0x00,
  0x0a, 0x00, 0x00, 0x00, 0x58, 0x00, 0x00, 0x00, 0x02, 0x00, 0x00, 0x00,
  0xff, 0xff, 0xff, 0xff, 0x09, 0x00, 0x00, 0x00, 0x88, 0xfc, 0xff, 0xff,
  0x3c, 0x00, 0x00, 0x00, 0x73, 0x65, 0x71, 0x75, 0x65, 0x6e, 0x74, 0x69,
  0x61, 0x6c, 0x5f, 0x31, 0x2f, 0x64, 0x65, 0x6e, 0x73, 0x65, 0x5f, 0x32,
  0x5f, 0x31, 0x2f, 0x4d, 0x61, 0x74, 0x4d, 0x75, 0x6c, 0x3b, 0x73, 0x65,
  0x71, 0x75, 0x65, 0x6e, 0x74, 0x69, 0x61, 0x6c, 0x5f, 0x31, 0x2f, 0x64,
  0x65, 0x6e, 0x73, 0x65, 0x5f, 0x32, 0x5f, 0x31, 0x2f, 0x42, 0x69, 0x61,
  0x73, 0x41, 0x64, 0x64, 0x00, 0x00, 0x00, 0x00, 0x02, 0x00, 0x00, 0x00,
  0x01, 0x00, 0x00, 0x00, 0x09, 0x00, 0x00, 0x00, 0x1a, 0xfd, 0xff, 0xff,
  0x00, 0x00, 0x00, 0x01, 0x14, 0x00, 0x00, 0x00, 0x1c, 0x00, 0x00, 0x00,
  0x1c, 0x00, 0x00, 0x00, 0x09, 0x00, 0x00, 0x00, 0x74, 0x00, 0x00, 0x00,
  0x02, 0x00, 0x00, 0x00, 0xff, 0xff, 0xff, 0xff, 0x20, 0x00, 0x00, 0x00,
  0x04, 0xfd, 0xff, 0xff, 0x58, 0x00, 0x00, 0x00, 0x73, 0x65, 0x71, 0x75,
  0x65, 0x6e, 0x74, 0x69, 0x61, 0x6c, 0x5f, 0x31, 0x2f, 0x64, 0x65, 0x6e,
  0x73, 0x65, 0x5f, 0x31, 0x5f, 0x32, 0x2f, 0x4d, 0x61, 0x74, 0x4d, 0x75,
  0x6c, 0x3b, 0x73, 0x65, 0x71, 0x75, 0x65, 0x6e, 0x74, 0x69, 0x61, 0x6c,
  0x5f, 0x31, 0x2f, 0x64, 0x65, 0x6e, 0x73, 0x65, 0x5f, 0x31, 0x5f, 0x32,
  0x2f, 0x52, 0x65, 0x6c, 0x75, 0x3b, 0x73, 0x65, 0x71, 0x75, 0x65, 0x6e,
  0x74, 0x69, 0x61, 0x6c, 0x5f, 0x31, 0x2f, 0x64, 0x65, 0x6e, 0x73, 0x65,
  0x5f, 0x31, 0x5f, 0x32, 0x2f, 0x42, 0x69, 0x61, 0x73, 0x41, 0x64, 0x64,
  0x00, 0x00, 0x00, 0x00, 0x02, 0x00, 0x00, 0x00, 0x01, 0x00, 0x00, 0x00,
  0x20, 0x00, 0x00, 0x00, 0xb2, 0xfd, 0xff, 0xff, 0x00, 0x00, 0x00, 0x01,
  0x14, 0x00, 0x00, 0x00, 0x1c, 0x00, 0x00, 0x00, 0x1c, 0x00, 0x00, 0x00,
  0x08, 0x00, 0x00, 0x00, 0x6c, 0x00, 0x00, 0x00, 0x02, 0x00, 0x00, 0x00,
  0xff, 0xff, 0xff, 0xff, 0x40, 0x00, 0x00, 0x00, 0x9c, 0xfd, 0xff, 0xff,
  0x52, 0x00, 0x00, 0x00, 0x73, 0x65, 0x71, 0x75, 0x65, 0x6e, 0x74, 0x69,
  0x61, 0x6c, 0x5f, 0x31, 0x2f, 0x64, 0x65, 0x6e, 0x73, 0x65, 0x5f, 0x31,
  0x2f, 0x4d, 0x61, 0x74, 0x4d, 0x75, 0x6c, 0x3b, 0x73, 0x65, 0x71, 0x75,
  0x65, 0x6e, 0x74, 0x69, 0x61, 0x6c, 0x5f, 0x31, 0x2f, 0x64, 0x65, 0x6e,
  0x73, 0x65, 0x5f, 0x31, 0x2f, 0x52, 0x65, 0x6c, 0x75, 0x3b, 0x73, 0x65,
  0x71, 0x75, 0x65, 0x6e, 0x74, 0x69, 0x61, 0x6c, 0x5f, 0x31, 0x2f, 0x64,
  0x65, 0x6e, 0x73, 0x65, 0x5f, 0x31, 0x2f, 0x42, 0x69, 0x61, 0x73, 0x41,
  0x64, 0x64, 0x00, 0x00, 0x02, 0x00, 0x00, 0x00, 0x01, 0x00, 0x00, 0x00,
  0x40, 0x00, 0x00, 0x00, 0x96, 0xfe, 0xff, 0xff, 0x00, 0x00, 0x00, 0x01,
  0x10, 0x00, 0x00, 0x00, 0x10, 0x00, 0x00, 0x00, 0x07, 0x00, 0x00, 0x00,
  0x28, 0x00, 0x00, 0x00, 0x1c, 0xfe, 0xff, 0xff, 0x1b, 0x00, 0x00, 0x00,
  0x73, 0x65, 0x71, 0x75, 0x65, 0x6e, 0x74, 0x69, 0x61, 0x6c, 0x5f, 0x31,
  0x2f, 0x64, 0x65, 0x6e, 0x73, 0x65, 0x5f, 0x31, 0x2f, 0x4d, 0x61, 0x74,
  0x4d, 0x75, 0x6c, 0x00, 0x02, 0x00, 0x00, 0x00, 0x40, 0x00, 0x00, 0x00,
  0x04, 0x00, 0x00, 0x00, 0xde, 0xfe, 0xff, 0xff, 0x00, 0x00, 0x00, 0x01,
  0x10, 0x00, 0x00, 0x00, 0x10, 0x00, 0x00, 0x00, 0x06, 0x00, 0x00, 0x00,
  0x38, 0x00, 0x00, 0x00, 0x64, 0xfe, 0xff, 0xff, 0x2b, 0x00, 0x00, 0x00,
  0x73, 0x65, 0x71, 0x75, 0x65, 0x6e, 0x74, 0x69, 0x61, 0x6c, 0x5f, 0x31,
  0x2f, 0x64, 0x65, 0x6e, 0x73, 0x65, 0x5f, 0x31, 0x2f, 0x42, 0x69, 0x61,
  0x73, 0x41, 0x64, 0x64, 0x2f, 0x52, 0x65, 0x61, 0x64, 0x56, 0x61, 0x72,
  0x69, 0x61, 0x62, 0x6c, 0x65, 0x4f, 0x70, 0x00, 0x01, 0x00, 0x00, 0x00,
  0x40, 0x00, 0x00, 0x00, 0x32, 0xff, 0xff, 0xff, 0x00, 0x00, 0x00, 0x01,
  0x10, 0x00, 0x00, 0x00, 0x10, 0x00, 0x00, 0x00, 0x05, 0x00, 0x00, 0x00,
  0x3c, 0x00, 0x00, 0x00, 0xb8, 0xfe, 0xff, 0xff, 0x2d, 0x00, 0x00, 0x00,
  0x73, 0x65, 0x71, 0x75, 0x65, 0x6e, 0x74, 0x69, 0x61, 0x6c, 0x5f, 0x31,
  0x2f, 0x64, 0x65, 0x6e, 0x73, 0x65, 0x5f, 0x31, 0x5f, 0x32, 0x2f, 0x42,
  0x69, 0x61, 0x73, 0x41, 0x64, 0x64, 0x2f, 0x52, 0x65, 0x61, 0x64, 0x56,
  0x61, 0x72, 0x69, 0x61, 0x62, 0x6c, 0x65, 0x4f, 0x70, 0x00, 0x00, 0x00,
  0x01, 0x00, 0x00, 0x00, 0x20, 0x00, 0x00, 0x00, 0x8a, 0xff, 0xff, 0xff,
  0x00, 0x00, 0x00, 0x01, 0x10, 0x00, 0x00, 0x00, 0x10, 0x00, 0x00, 0x00,
  0x04, 0x00, 0x00, 0x00, 0x1c, 0x00, 0x00, 0x00, 0x10, 0xff, 0xff, 0xff,
  0x0f, 0x00, 0x00, 0x00, 0x61, 0x72, 0x69, 0x74, 0x68, 0x2e, 0x63, 0x6f,
  0x6e, 0x73, 0x74, 0x61, 0x6e, 0x74, 0x32, 0x00, 0x01, 0x00, 0x00, 0x00,
  0x09, 0x00, 0x00, 0x00, 0xc2, 0xff, 0xff, 0xff, 0x00, 0x00, 0x00, 0x01,
  0x10, 0x00, 0x00, 0x00, 0x10, 0x00, 0x00, 0x00, 0x03, 0x00, 0x00, 0x00,
  0x1c, 0x00, 0x00, 0x00, 0x48, 0xff, 0xff, 0xff, 0x0f, 0x00, 0x00, 0x00,
  0x61, 0x72, 0x69, 0x74, 0x68, 0x2e, 0x63, 0x6f, 0x6e, 0x73, 0x74, 0x61,
  0x6e, 0x74, 0x31, 0x00, 0x02, 0x00, 0x00, 0x00, 0x20, 0x00, 0x00, 0x00,
  0x40, 0x00, 0x00, 0x00, 0x00, 0x00, 0x16, 0x00, 0x18, 0x00, 0x14, 0x00,
  0x00, 0x00, 0x10, 0x00, 0x0c, 0x00, 0x08, 0x00, 0x00, 0x00, 0x00, 0x00,
  0x00, 0x00, 0x07, 0x00, 0x16, 0x00, 0x00, 0x00, 0x00, 0x00, 0x00, 0x01,
  0x10, 0x00, 0x00, 0x00, 0x10, 0x00, 0x00, 0x00, 0x02, 0x00, 0x00, 0x00,
  0x1c, 0x00, 0x00, 0x00, 0x9c, 0xff, 0xff, 0xff, 0x0e, 0x00, 0x00, 0x00,
  0x61, 0x72, 0x69, 0x74, 0x68, 0x2e, 0x63, 0x6f, 0x6e, 0x73, 0x74, 0x61,
  0x6e, 0x74, 0x00, 0x00, 0x02, 0x00, 0x00, 0x00, 0x09, 0x00, 0x00, 0x00,
  0x20, 0x00, 0x00, 0x00, 0x00, 0x00, 0x16, 0x00, 0x1c, 0x00, 0x18, 0x00,
  0x00, 0x00, 0x14, 0x00, 0x10, 0x00, 0x0c, 0x00, 0x00, 0x00, 0x00, 0x00,
  0x08, 0x00, 0x07, 0x00, 0x16, 0x00, 0x00, 0x00, 0x00, 0x00, 0x00, 0x01,
  0x14, 0x00, 0x00, 0x00, 0x20, 0x00, 0x00, 0x00, 0x20, 0x00, 0x00, 0x00,
  0x01, 0x00, 0x00, 0x00, 0x3c, 0x00, 0x00, 0x00, 0x02, 0x00, 0x00, 0x00,
  0xff, 0xff, 0xff, 0xff, 0x04, 0x00, 0x00, 0x00, 0x04, 0x00, 0x04, 0x00,
  0x04, 0x00, 0x00, 0x00, 0x1e, 0x00, 0x00, 0x00, 0x73, 0x65, 0x72, 0x76,
  0x69, 0x6e, 0x67, 0x5f, 0x64, 0x65, 0x66, 0x61, 0x75, 0x6c, 0x74, 0x5f,
  0x6b, 0x65, 0x72, 0x61, 0x73, 0x5f, 0x74, 0x65, 0x6e, 0x73, 0x6f, 0x72,
  0x3a, 0x30, 0x00, 0x00, 0x02, 0x00, 0x00, 0x00, 0x01, 0x00, 0x00, 0x00,
  0x04, 0x00, 0x00, 0x00, 0x02, 0x00, 0x00, 0x00, 0x20, 0x00, 0x00, 0x00,
  0x04, 0x00, 0x00, 0x00, 0xf4, 0xff, 0xff, 0xff, 0x19, 0x00, 0x00, 0x00,
  0x00, 0x00, 0x00, 0x19, 0x0c, 0x00, 0x0c, 0x00, 0x0b, 0x00, 0x00, 0x00,
  0x00, 0x00, 0x04, 0x00, 0x0c, 0x00, 0x00, 0x00, 0x09, 0x00, 0x00, 0x00,
  0x00, 0x00, 0x00, 0x09
};
